{"<pad>":0,"<eos>":1,"!":2,"\"":3,"#":4,"$":5,"%":6,"&":7,"'":8,"(":9,")":10,"*":11,"+":12,",":13,"-":14,".":15,"/":16,"0":17,"1":18,"2":19,"3":20,"4":21,"5":22,"6":23,"7":24,"8":25,"9":26,":":27,";":28,"<":29,"=":30,">":31,"?":32,"@":33,"A":34,"B":35,"C":36,"D":37,"E":38,"F":39,"G":40,"H":41,"I":42,"J":43,"K":44,"L":45,"M":46,"N":47,"O":48,"P":49,"Q":50,"R":51,"S":52,"T":53,"U":54,"V":55,"W":56,"X":57,"Y":58,"Z":59,"[":60,"\\":61,"]":62,"^":63,"_":64,"`":65,"a":66,"b":67,"c":68,"d":69,"e":70,"f":71,"g":72,"h":73,"i":74,"j":75,"k":76,"l":77,"m":78,"n":79,"o":80,"p":81,"q":82,"r":83,"s":84,"t":85,"u":86,"v":87,"w":88,"x":89,"y":90,"z":91,"{":92,"|":93,"}":94,"~":95,"¡":96,"¢":97,"£":98,"¤":99,"¥":100,"¦":101,"§":102,"¨":103,"©":104,"ª":105,"«":106,"¬":107,"®":108,"¯":109,"°":110,"±":111,"²":112,"³":113,"´":114,"µ":115,"¶":116,"·":117,"¸":118,"¹":119,"º":120,"»":121,"¼":122,"½":123,"¾":124,"¿":125,"À":126,"Á":127,"Â":128,"Ã":129,"Ä":130,"Å":131,"Æ":132,"Ç":133,"È":134,"É":135,"Ê":136,"Ë":137,"Ì":138,"Í":139,"Î":140,"Ï":141,"Ð":142,"Ñ":143,"Ò":144,"Ó":145,"Ô":146,"Õ":147,"Ö":148,"×":149,"Ø":150,"Ù":151,"Ú":152,"Û":153,"Ü":154,"Ý":155,"Þ":156,"ß":157,"à":158,"á":159,"â":160,"ã":161,"ä":162,"å":163,"æ":164,"ç":165,"è":166,"é":167,"ê":168,"ë":169,"ì":170,"í":171,"î":172,"ï":173,"ð":174,"ñ":175,"ò":176,"ó":177,"ô":178,"õ":179,"ö":180,"÷":181,"ø":182,"ù":183,"ú":184,"û":185,"ü":186,"ý":187,"þ":188,"ÿ":189,"Ā":190,"ā":191,"Ă":192,"ă":193,"Ą":194,"ą":195,"Ć":196,"ć":197,"Ĉ":198,"ĉ":199,"Ċ":200,"ċ":201,"Č":202,"č":203,"Ď":204,"ď":205,"Đ":206,"đ":207,"Ē":208,"ē":209,"Ĕ":210,"ĕ":211,"Ė":212,"ė":213,"Ę":214,"ę":215,"Ě":216,"ě":217,"Ĝ":218,"ĝ":219,"Ğ":220,"ğ":221,"Ġ":222,"ġ":223,"Ģ":224,"ģ":225,"Ĥ":226,"ĥ":227,"Ħ":228,"ħ":229,"Ĩ":230,"ĩ":231,"Ī":232,"ī":233,"Ĭ":234,"ĭ":235,"Į":236,"į":237,"İ":238,"ı":239,"Ĳ":240,"ĳ":241,"Ĵ":242,"ĵ":243,"Ķ":244,"ķ":245,"ĸ":246,"Ĺ":247,"ĺ":248,"Ļ":249,"ļ":250,"Ľ":251,"ľ":252,"Ŀ":253,"ŀ":254,"Ł":255,"ł":256,"Ń":257,"Ġt":258,"he":259,"Ġa":260,"ou":261,"Ġs":262,"Ġm":263,"in":264,"Ġw":265,"re":266,"ha":267,"nd":268,"Ġthe":269,"Ġb":270,"is":271,"or":272,"Ġf":273,"er":274,"ll":275,"it":276,"on":277,"Ġd":278,"Ġc":279,"es":280,"en":281,"Ġn":282,"Ġl":283,"Ġy":284,"Ġth":285,"ar":286,"Ġh":287,"Ġo":288,"Ġto":289,"Ġyou":290,"Ġp":291,"hat":292,"ĠI":293,"Ġhe":294,"ve":295,"ot":296,"st":297,"Ġand":298,"ow":299,"ing":300,"an":301,"Ġof":302,"om":303,"Ġg":304,"at":305,"Ġbe":306,"se":307,"Ġmy":308,"Ġin":309,"ce":310,"Ġha":311,"le":312,"ay":313,"ld":314,"ir":315,"et":316,"ed":317,"ut":318,"Ġme":319,"im":320,"ith":321,"'s":322,"Ġnot":323,"ch":324,"Ġthat":325,"Ġis":326,"gh":327,"And":328,"Ġfor":329,"ke":330,"Ġu":331,"our":332,"Ġwe":333,"oo":334,"ill":335,"Ġe":336,"her":337,"Ġwith":338,"ent":339,"Ġit":340,"Ġyour":341,"ad":342,"ri":343,"Ġthou":344,"Ġst":345,"'d":346,"Ġk":347,"ome":348,"Ġhis":349,"ght":350,"EN":351,"ord":352,"id":353,"The":354,"as":355,"Ġre":356,"Ġhave":357,"IN":358,"ly":359,"ra":360,"Ġli":361,"Ġhim":362,"ur":363,"Ġthis":364,"al":365,"IO":366,"Ġso":367,"Ġas":368,"Ġde":369,"Ġon":370,"ore":371,"ro":372,"AR":373,"hi":374,"ould":375,"ood":376,"ck":377,"ain":378,"ver":379,"est":380,"Ġthy":381,"Ġsha":382,"ess":383,"ea":384,"Ġdo":385,"Ġwill":386,"am":387,"Ġno":388,"Ġbut":389,"us":390,"and":391,"US":392,"if":393,"Ġse":394,"ge":395,"Th":396,"Ġall":397,"ake":398,"Ġsu":399,"To":400,"Ġher":401,"ru":402,"ion":403,"th":404,"Ġan":405,"ter":406,"ard":407,"Ġlo":408,"han":409,"ell":410,"ear":411,"Ġsp":412,"Ġthee":413,"Ġour":414,"Ġfa":415,"Ġshall":416,"Ġby":417,"UC":418,"il":419,"Ġare":420,"ING":421,"ĠC":422,"rom":423,"Ġne":424,"ho":425,"Ġkn":426,"AN":427,"ĠR":428,"That":429,"Ġv":430,"ER":431,"OR":432,"ast":433,"ct":434,"ous":435,"Ġwhat":436,"ight":437,"Ġsh":438,"ul":439,"ET":440,"Ġ'":441,"ant":442,"ES":443,"Ġup":444,"sel":445,"qu":446,"But":447,"art":448,"Ġgood":449,"row":450,"ine":451,"ath":452,"Ġlord":453,"hich":454,"nt":455,"ust":456,"'ll":457,"one":458,"Ġpr":459,"Ġcom":460,"Ġat":461,"Ġman":462,"What":463,"ĠM":464,"Ġwhe":465,"ĠE":466,"KING":467,"Ġam":468,"end":469,"ic":470,"Ġcon":471,"ble":472,"ry":473,"ong":474,"ie":475,"ive":476,"Ġbl":477,"Ġfrom":478,"ven":479,"ĠG":480,"For":481,"Ġshe":482,"em":483,"Ġgo":484,"are":485,"Ġmore":486,"IC":487,"out":488,"Ġthem":489,"au":490,"Ġwas":491,"oth":492,"other":493,"He":494,"Ġsir":495,"ol":496,"Ġnow":497,"ĠL":498,"Ġhat":499,"ost":500,"Ġif":501,"LO":502,"ind":503,"Ġthere":504,"Ġwould":505,"Ġknow":506,"Ġcan":507,"ers":508,"IUS":509,"ep":510,"self":511,"ARD":512,"ather":513,"fe":514,"ond":515,"res":516,"ate":517,"Ġsay":518,"Ġhere":519,"Ġlove":520,"Ġsw":521,"Ġtheir":522,"Ġbr":523,"pp":524,"Ġor":525,"--":526,"all":527,"ĠS":528,"Ġthan":529,"Ġthen":530,"Ġking":531,"Ġus":532,"ĠO":533,"ĠB":534,"Ġthey":535,"Ġar":536,"od":537,"My":538,"Ġlet":539,"Ġun":540,"ig":541,"Ġwor":542,"ure":543,"ink":544,"ĠH":545,"ort":546,"hy":547,"ĠV":548,"ame":549,"fore":550,"As":551,"Ġmay":552,"el":553,"Ġqu":554,"Ġcome":555,"ook":556,"Whe":557,"ish":558,"LI":559,"Ġwell":560,"KE":561,"ves":562,"Ġj":563,"Ġone":564,"Ġhath":565,"irst":566,"You":567,"Ġmake":568,"reat":569,"ak":570,"gain":571,"Ġmust":572,"ound":573,"ng":574,"Ġgra":575,"Ġwere":576,"Ġho":577,"ci":578,"Ġsee":579,"Ġlike":580,"ue":581,"eak":582,"TIO":583,"Ġshould":584,"ity":585,"Ġpro":586,"ĠP":587,"Ġsa":588,"Ġmad":589,"um":590,"Ġpl":591,"Ġfather":592,"RO":593,"AU":594,"Ġhad":595,"Ġdid":596,"pe":597,"ime":598,"Ġupon":599,"ice":600,"ON":601,"Ġtoo":602,"ence":603,"ĠW":604,"ward":605,"ist":606,"Ġdeath":607,"own":608,"man":609,"ose":610,"Ġen":611,"un":612,"IS":613,"ful":614,"nce":615,"Ġr":616,"Ġpo":617,"Ġspeak":618,"de":619,"entle":620,"io":621,"Ġout":622,"pt":623,"Ġwhich":624,"ICH":625,"Ġfri":626,"OL":627,"DU":628,"Ġagain":629,"DUKE":630,"Ġhow":631,"EL":632,"ick":633,"ĠA":634,"Ġtru":635,"Ġheart":636,"Ġyet":637,"Ġhand":638,"CA":639,"Thou":640,"very":641,"ICHARD":642,"ENTIO":643,"With":644,"ign":645,"Ġsome":646,"ance":647,"Ġwho":648,"Which":649,"If":650,"Ġwhen":651,"ies":652,"Ġmar":653,"ire":654,"Ġmine":655,"Ġhon":656,"har":657,"orn":658,"Ġoff":659,"ince":660,"INC":661,"In":662,"ack":663,"ĠY":664,"Ġson":665,"Ġdis":666,"Ġal":667,"'t":668,"We":669,"uch":670,"wn":671,"Ġhea":672,"First":673,"oy":674,"Ġtime":675,"Ġhear":676,"AB":677,"ec":678,"Ġsuch":679,"ness":680,"LA":681,"Ġbrother":682,"Of":683,"Ġblood":684,"ither":685,"Ġab":686,"UE":687,"Why":688,"Ġthese":689,"No":690,"Ġgive":691,"Ġfo":692,"Ġday":693,"ĠII":694,"Ġear":695,"ĠRICHARD":696,"TER":697,"Ġro":698,"ise":699,"Ġex":700,"Ġlife":701,"This":702,"eet":703,"Ġtell":704,"So":705,"Ġlook":706,"Ġthink":707,"UCH":708,"oul":709,"Ġword":710,"Ġey":711,"Ġwhere":712,"ag":713,"age":714,"een":715,"ther":716,"GLO":717,"Ġtake":718,"UCES":719,"Ġfriend":720,"GLOUCES":721,"GLOUCESTER":722,"ef":723,"erv":724,"ady":725,"rown":726,"Ġdes":727,"ings":728,"ave":729,"not":730,"Ġgentle":731,"urse":732,"How":733,"RY":734,"Ġri":735,"ase":736,"QUE":737,"way":738,"INCENTIO":739,"QUEEN":740,"Ġlea":741,"tis":742,"ĠOF":743,"Ġart":744,"Ġmost":745,"Where":746,"Ġhonour":747,"LAN":748,"Ġmuch":749,"Ġsl":750,"Ġwar":751,"Ġfl":752,"urn":753,"Ġmade":754,"ment":755,"Now":756,"Ġhast":757,"Ġtw":758,"Ġfear":759,"ĠT":760,"Ġbet":761,"ENRY":762,"aught":763,"Is":764,"LE":765,"ber":766,"ff":767,"ĠGod":768,"ough":769,"ved":770,"Ġbre":771,"cc":772,"ower":773,"Ġnever":774,"ĠVINCENTIO":775,"Be":776,"ap":777,"igh":778,"ĠK":779,"Ġgreat":780,"Ġfair":781,"Who":782,"ee":783,"tle":784,"Ġmen":785,"orrow":786,"Ġcou":787,"Ġnew":788,"ĠRome":789,"aster":790,"uke":791,"iz":792,"old":793,"ORK":794,"Ġpart":795,"ation":796,"INIUS":797,"ss":798,"ree":799,"ide":800,"Or":801,"Ġcall":802,"ple":803,"Ġany":804,"Ġheaven":805,"Ġad":806,"Ġcomm":807,"It":808,"Your":809,"Ġstand":810,"Ġcannot":811,"Ġtrue":812,"DW":813,"Ġname":814,"Ġbeen":815,"ears":816,"DWARD":817,"Ġcl":818,"Ġpre":819,"Ġsweet":820,",--":821,"Ġdoth":822,"Ġpray":823,"hing":824,"PET":825,"UM":826,"Ġnoble":827,"LUC":828,"MEN":829,"TH":830,"Ġown":831,"Ġple":832,"ass":833,"ĠD":834,"ouse":835,"Ġper":836,"Ay":837,"Come":838,"ull":839,"There":840,"Ġwr":841,"Ġdone":842,"ife":843,"aw":844,"Ġtr":845,"Ġway":846,"Ġother":847,"Ġhead":848,"Ġmean":849,"li":850,"red":851,"When":852,"dward":853,"Ġnor":854,"EO":855,"MEO":856,"Ġsc":857,"Ġsoul":858,"Ġpres":859,"ROMEO":860,"ace":861,"ving":862,"Ġnight":863,"Ġbear":864,"ENIUS":865,"aint":866,"ĠCl":867,"Ġworld":868,"MENENIUS":869,"ger":870,"Ġbefore":871,"ause":872,"Ġboth":873,"Ġqueen":874,"per":875,"Then":876,"aughter":877,"RUCH":878,"ock":879,"Ġchi":880,"Here":881,"PETRUCH":882,"PETRUCHIO":883,"OM":884,"able":885,"Ġvery":886,"Ġdead":887,"TES":888,"By":889,"Ġra":890,"ite":891,"Than":892,"the":893,"Ġke":894,"ab":895,"les":896,"ĠF":897,"Ġdown":898,"to":899,"Ġapp":900,"Ġmyself":901,"Ġcont":902,"GR":903,"HA":904,"Ġwh":905,"Ġrem":906,"ĠLord":907,"Ġarm":908,"Ġthus":909,"IOLAN":910,"ilt":911,"ORIOLAN":912,"ORIOLANUS":913,"CORIOLANUS":914,"Sec":915,"Ġleave":916,"Second":917,"Ġbeing":918,"ction":919,"ĠEdward":920,"Nor":921,"sw":922,"Ġunt":923,"ress":924,"Ġgrace":925,"less":926,"Ġbeg":927,"Ġeyes":928,"BA":929,"land":930,"Ġmother":931,"ran":932,"Ġma":933,"Ġold":934,"Ġim":935,"INA":936,"ĠEDWARD":937,"itiz":938,"itizen":939,"ps":940,"Ġlong":941,"Ġever":942,"ĠMar":943,"Ġlive":944,"Ġchild":945,"Let":946,"me":947,"Ġwife":948,"She":949,"Ġaway":950,"Ġrep":951,"ĠIII":952,"Ġwom":953,"Ġpoor":954,"Ġfriends":955,"come":956,"for":957,"wick":958,"Ġaf":959,"Ġmight":960,"nder":961,"Ġstay":962,"eace":963,"ks":964,"oud":965,"Ġdie":966,"atch":967,"led":968,"ĠJ":969,"Ġru":970,"arwick":971,"Ġcomes":972,"Ġcons":973,"Ġcrown":974,"ows":975,"Ġmany":976,"Ġpe":977,"Tis":978,"hall":979,"ison":980,"Ġle":981,"ĠYORK":982,"lo":983,"uck":984,"iss":985,"Ġhouse":986,"Ġhar":987,"Ġthought":988,"Ġrest":989,"ISAB":990,"ELLA":991,"ISABELLA":992,"ian":993,"erc":994,"Ġcour":995,"RAN":996,"Ġent":997,"Ġlie":998,"che":999,"Ġset":1000,"JU":1001,"well":1002,"ors":1003,"atter":1004,"LIET":1005,"ONTES":1006,"ĠWarwick":1007,"LEONTES":1008,"JULIET":1009,"Nay":1010,"int":1011,"ittle":1012,"Ġdaughter":1013,"Ġgone":1014,"Ġbetter":1015,"MI":1016,"rant":1017,"ought":1018,"Ġprince":1019,"DY":1020,"His":1021,"Ġtong":1022,"Ġwit":1023,"Ġnothing":1024,"CE":1025,"VOL":1026,"ENCE":1027,"LADY":1028,"BR":1029,"TA":1030,"cl":1031,"ied":1032,"Ġkeep":1033,"Go":1034,"Well":1035,"ces":1036,"ious":1037,"os":1038,"Ġsle":1039,"Ġres":1040,"hard":1041,"Ġnews":1042,"SIC":1043,"ft":1044,"ier":1045,"Ġtri":1046,"Ġmo":1047,"ret":1048,"ont":1049,"Ġthose":1050,"Ġgri":1051,"ool":1052,"une":1053,"SICINIUS":1054,"Not":1055,"Ġlittle":1056,"Ġlords":1057,"Ġagainst":1058,"ford":1059,"Ġbest":1060,"Ġhour":1061,"Ġhence":1062,"ardon":1063,"akes":1064,"lse":1065,"Ġacc":1066,"sed":1067,"Ġface":1068,"ult":1069,"Ġfoll":1070,"On":1071,"ew":1072,"ud":1073,"ark":1074,"Ġyoung":1075,"Ġend":1076,"ork":1077,"Ġthing":1078,"Ġstill":1079,"Ġkind":1080,"ield":1081,"ST":1082,"Ġpri":1083,"Ġpur":1084,"alk":1085,"Thy":1086,"Ġcomp":1087,"LUCIO":1088,"ale":1089,"ins":1090,"ert":1091,"Ġput":1092,"Ġpower":1093,"ĠIV":1094,"ichard":1095,"Ġtwo":1096,"Ġcha":1097,"Ġhimself":1098,"Pro":1099,"iness":1100,"Ġfirst":1101,"Ġpeace":1102,"Ġgu":1103,"Ġelse":1104,"ried":1105,"Ġdear":1106,"cious":1107,"Sir":1108,"ail":1109,"ty":1110,"ason":1111,"hile":1112,"Ġsub":1113,"Ġunto":1114,"ile":1115,"ray":1116,"Ġtill":1117,"Ġsm":1118,"uty":1119,"RI":1120,"ZAB":1121,"ect":1122,"Ġtra":1123,"Ġbid":1124,"Ġback":1125,"Ġdre":1126,"Ġhus":1127,"ETH":1128,"ĠELI":1129,"Ġtherefore":1130,"Ġearth":1131,"Ġwords":1132,"Ġcount":1133,"ZABETH":1134,"ĠELIZABETH":1135,"Have":1136,"band":1137,"ius":1138,"men":1139,"ople":1140,"yal":1141,"Ġfind":1142,"Ġcould":1143,"Ġtongue":1144,"orse":1145,"Ġlady":1146,"Ġthine":1147,"Ġneed":1148,"ĠYork":1149,"HENRY":1150,"get":1151,"tw":1152,"Ġtre":1153,"Ġfell":1154,"enry":1155,"Ġhigh":1156,"Ġforth":1157,"Ġhope":1158,"MER":1159,"St":1160,"lp":1161,"Ġhome":1162,"vere":1163,"eth":1164,"Ġseem":1165,"eech":1166,"ĠRomeo":1167,"Ġhusband":1168,"CL":1169,"Ġduke":1170,"Ġright":1171,"GE":1172,"WAR":1173,"WIC":1174,"fort":1175,"ĠWhat":1176,"rer":1177,"Ġban":1178,"uth":1179,"Ġthough":1180,"ĠVI":1181,"WARWIC":1182,"WARWICK":1183,"UT":1184,"ach":1185,"ix":1186,"Ġmind":1187,"Ġbra":1188,"ister":1189,"Ġche":1190,"Ġchar":1191,"hip":1192,"ĠHENRY":1193,"Ġpeople":1194,"Nurse":1195,"ds":1196,"ged":1197,"ĠCitizen":1198,"ren":1199,"They":1200,"ĠHenry":1201,"HAM":1202,"IAN":1203,"LET":1204,"PU":1205,"eed":1206,"Ġbri":1207,"Ġchan":1208,"Ġlaw":1209,"ĠRichard":1210,"Ġshow":1211,"Ġconf":1212,"Ġhands":1213,"PULET":1214,"EY":1215,"be":1216,"Ġmaster":1217,"Ġwhy":1218,"Ġco":1219,"Ġcause":1220,"Ġgl":1221,"Ġonce":1222,"Ġsaid":1223,"Ġimp":1224,"Good":1225,"MIO":1226,"Shall":1227,"Ġbod":1228,"Ġnone":1229,"ousin":1230,"Ġjoy":1231,"ervant":1232,"All":1233,"bt":1234,"Ġfort":1235,"Ġbring":1236,"Yet":1237,"Ġdou":1238,"ates":1239,"Ġevery":1240,"UCKING":1241,"BRUT":1242,"UCKINGHAM":1243,"BRUTUS":1244,"BRO":1245,"BUCKINGHAM":1246,"From":1247,"TRAN":1248,"iet":1249,"Ġmist":1250,"Ġpass":1251,"ird":1252,"Ġlight":1253,"INGBRO":1254,"ESS":1255,"ĠBOL":1256,"TRANIO":1257,"INGBROKE":1258,"ĠBOLINGBROKE":1259,"Do":1260,"Will":1261,"lt":1262,"vost":1263,"Ġwo":1264,"Ġnat":1265,"Ġthr":1266,"Ġroyal":1267,"swer":1268,"PER":1269,"TIS":1270,"cle":1271,"Ġtears":1272,"its":1273,"Ġcame":1274,"ary":1275,"ĠMAR":1276,"Ġwhose":1277,"Ġplease":1278,"lf":1279,"vy":1280,"ory":1281,"Ġpardon":1282,"roke":1283,"ĠAn":1284,"Cl":1285,"GAR":1286,"NE":1287,"pose":1288,"Ġbes":1289,"Ġboy":1290,"Ġfull":1291,"arry":1292,"Ġheard":1293,"Ġhapp":1294,"Ġdev":1295,"Ġjust":1296,"Ġwrong":1297,"Ġpresent":1298,"ĠMARGAR":1299,"ĠMARGARET":1300,"ATH":1301,"eel":1302,"Ġsince":1303,"Ġmis":1304,"ens":1305,"Ġland":1306,"Ġlast":1307,"Ġere":1308,"Ġstate":1309,"Ġplace":1310,"MIL":1311,"bl":1312,"sand":1313,"Ġmeet":1314,"Ġunder":1315,"Ġkill":1316,"Ġafter":1317,"HOR":1318,"cent":1319,"Ġsorrow":1320,"ition":1321,"Ġcare":1322,"Ġthousand":1323,"esty":1324,"ANGE":1325,"ORD":1326,"Ġhold":1327,"GRE":1328,"ANGELO":1329,"CU":1330,"Our":1331,"Ġhelp":1332,"ARINA":1333,"arence":1334,"Ġwhom":1335,"Ġfollow":1336,"KATH":1337,"day":1338,"Ġfar":1339,"Ġless":1340,"Ġhither":1341,"ceive":1342,"irt":1343,"Ġweep":1344,"Ġshame":1345,"selves":1346,"cius":1347,"Ġenem":1348,"Ġabout":1349,"Ġeye":1350,"KATHARINA":1351,"iol":1352,"Ġfal":1353,"Ġfool":1354,"ons":1355,"Ġpat":1356,"urde":1357,"Ġsun":1358,"Ġanswer":1359,"air":1360,"Ġch":1361,"asure":1362,"Ġfall":1363,"Ġmaid":1364,"LUS":1365,"Un":1366,"Up":1367,"ount":1368,"Ġbus":1369,"Ġcousin":1370,"thy":1371,"ESCA":1372,"Ġhate":1373,"Ġgracious":1374,"Ġgentleman":1375,"ĠKing":1376,"Ġgrief":1377,"ESCALUS":1378,"An":1379,"ject":1380,"ove":1381,"Ġmakes":1382,"Ġinto":1383,"imes":1384,"Ġstri":1385,"Hath":1386,"iv":1387,"ild":1388,"Ġstre":1389,"ĠEng":1390,"Ġwoman":1391,"DUCH":1392,"Ġturn":1393,"Ġhum":1394,"Ġbel":1395,"alt":1396,"Ġdost":1397,"Ġcomfort":1398,"ices":1399,"Ġcoun":1400,"ĠDuke":1401,"Ġcourt":1402,"Ġsleep":1403,"urderer":1404,"DUCHESS":1405,"Lord":1406,"pher":1407,"Ġtalk":1408,"itor":1409,"Ġover":1410,"Ġbody":1411,"morrow":1412,"Ġwilt":1413,"Ġbu":1414,"Ġgr":1415,"ute":1416,"gelo":1417,"deed":1418,"ĠMarcius":1419,"IA":1420,"ience":1421,"Ġi":1422,"ised":1423,"Ġbed":1424,"Ġfault":1425,"Ġatt":1426,"ieve":1427,"Ġprove":1428,"Ġplay":1429,"CAMIL":1430,"ĠClarence":1431,"CAMILLO":1432,"God":1433,"ere":1434,"ily":1435,"Ġsound":1436,"Ġdra":1437,"ans":1438,"omet":1439,"Ġinst":1440,"Ġwel":1441,"ade":1442,"Ġret":1443,"Ġdeed":1444,"Ġthank":1445,"TEN":1446,"Ġser":1447,"Ġbo":1448,"Ġfight":1449,"Ġindeed":1450,"illain":1451,"hold":1452,"Ġvo":1453,"Ġsword":1454,"ĠAngelo":1455,"HORTEN":1456,"Ġfalse":1457,"HORTENS":1458,"FRI":1459,"Sh":1460,"Ġuse":1461,"Ġeven":1462,"Ġsovere":1463,"Ġanother":1464,"Ġgrave":1465,"Ġadv":1466,"Provost":1467,"Ġfellow":1468,"Upon":1469,"HORTENSIO":1470,"FRIAR":1471,",'":1472,"PTIS":1473,"eal":1474,"Ġcur":1475,"Ġhas":1476,"Ġem":1477,"ury":1478,"pect":1479,"BAPTIS":1480,"Ġbanish":1481,"Ġfortune":1482,"BAPTISTA":1483,"CUS":1484,"COM":1485,"TOL":1486,"YCUS":1487,"pl":1488,"pen":1489,"ouch":1490,"Ġmerc":1491,"Ġmatter":1492,"Ġwant":1493,"Ġreven":1494,"Ġass":1495,"Ġsend":1496,"Ġprison":1497,"fect":1498,"AUTOL":1499,"Ġrather":1500,"Ġcountry":1501,"Ġdoubt":1502,"COMINIUS":1503,"AUTOLYCUS":1504,".'":1505,"Are":1506,"Even":1507,"More":1508,"Ġwish":1509,"Ġyears":1510,"Ġreason":1511,"Ġlies":1512,"Ġonly":1513,"ARENCE":1514,"Third":1515,"Ġvirt":1516,"Ġtruth":1517,"Would":1518,"ior":1519,"ms":1520,"of":1521,"rance":1522,"ĠBut":1523,"Ġdan":1524,"Ġpers":1525,"any":1526,"Ġbreath":1527,"Ġarms":1528,"Ġdream":1529,"CLARENCE":1530,"pherd":1531,"BEN":1532,"MAR":1533,"NOR":1534,"dd":1535,"der":1536,"Ġsent":1537,"ener":1538,"Ġgi":1539,"Ġstra":1540,"Ġshalt":1541,"Ġdisc":1542,"VOLIO":1543,"Clown":1544,"Ġbusiness":1545,"BENVOLIO":1546,"Al":1547,"At":1548,"PRO":1549,"SPER":1550,"by":1551,"hed":1552,"Ġsen":1553,"Ġprom":1554,"Ġholy":1555,"Ġenough":1556,"erving":1557,"Ġcommand":1558,"UMIO":1559,"GRUMIO":1560,"PROSPER":1561,"PROSPERO":1562,"ia":1563,"ken":1564,"Ġsea":1565,"Ġwind":1566,"itt":1567,"Ġcra":1568,"Ġlay":1569,"ars":1570,"Ġpity":1571,"ator":1572,"Ġbea":1573,"Ġhang":1574,"Ġstran":1575,"Ġsold":1576,"Ġspir":1577,"Ġfare":1578,"Ġproud":1579,"ĠMurderer":1580,"Ġswear":1581,"Ġcontent":1582,"MERCU":1583,"MERCUTIO":1584,"ike":1585,"Ġdare":1586,"eter":1587,"Ġlives":1588,"Ġdep":1589,"Ġsec":1590,"Ġvillain":1591,"gainst":1592,"ĠKate":1593,"LUCENTIO":1594,"Ġremem":1595,"Ġnature":1596,"Ġwelcome":1597,"POM":1598,"Tw":1599,"com":1600,"unt":1601,"Ġtend":1602,"ham":1603,"Ġfree":1604,"Ġgre":1605,"Ġget":1606,"Ġint":1607,"Ġwithin":1608,"Ġkiss":1609,"ester":1610,"ĠCome":1611,"Ġgods":1612,"Ġsaw":1613,"Ġmadam":1614,"LAND":1615,"Ġhappy":1616,"Ġsovereign":1617,"POMP":1618,"LINA":1619,"PAU":1620,"apt":1621,"Ġserv":1622,"Ġsister":1623,"Ġsomet":1624,"hal":1625,"Ġfoul":1626,"Ġcity":1627,"vers":1628,"Were":1629,"Ġbeseech":1630,"PAULINA":1631,"YORK":1632,"ient":1633,"use":1634,"ery":1635,"Ġden":1636,"Ġyield":1637,"Ġthree":1638,"Ġoath":1639,"Ġyours":1640,"onder":1641,"ague":1642,"Ġbreak":1643,"Ġmeans":1644,"Ġsubject":1645,"gether":1646,"GREMIO":1647,"POMPEY":1648,"NIA":1649,"OLI":1650,"POLI":1651,"XEN":1652,"balt":1653,"ybalt":1654,"ĠNor":1655,"Ġaw":1656,"Ġmer":1657,"Ġwhile":1658,"Ġborn":1659,"Ġthings":1660,"Ġhorse":1661,"anc":1662,"usic":1663,"ANT":1664,"Ġbloody":1665,"Ġlooks":1666,"eft":1667,"UMNIA":1668,"like":1669,"ches":1670,"VOLUMNIA":1671,"POLIXEN":1672,"POLIXENES":1673,"GON":1674,"Her":1675,"rong":1676,"up":1677,"ues":1678,"Ġtem":1679,"Ġwin":1680,"Ġwound":1681,"Ġfire":1682,"enger":1683,"Ġyourself":1684,"Ġsupp":1685,"Ġspo":1686,"Ġfaith":1687,"INGS":1688,"ĠServing":1689,"Ġmaj":1690,"STINGS":1691,"Ġtraitor":1692,"centio":1693,"ĠServingman":1694,"RENCE":1695,"Say":1696,"bs":1697,"broke":1698,"rem":1699,"Ġdru":1700,"Ġlam":1701,"essenger":1702,"ĠLAU":1703,"Ġmark":1704,"Ġcommon":1705,"HASTINGS":1706,"Ġchildren":1707,"ertain":1708,"Ġmistress":1709,"ĠLAURENCE":1710,"BY":1711,"BER":1712,"Ġcond":1713,"Ġbeat":1714,"Ġrequ":1715,"Ġdef":1716,"Ġval":1717,"Ġuncle":1718,"Therefore":1719,"form":1720,"Ġmajesty":1721,"CLI":1722,"FF":1723,"Look":1724,"Was":1725,"Ġaff":1726,"Ġsin":1727,"Ġmet":1728,"Ġlate":1729,"Ġleft":1730,"Ġtold":1731,"Ġsoon":1732,"Ġseen":1733,"Ġsave":1734,"Ġdays":1735,"UMBER":1736,"THUMBER":1737,"Ġwoe":1738,"ĠEngland":1739,"NORTHUMBER":1740,"Ġtender":1741,"CLIFF":1742,"NORTHUMBERLAND":1743,"ID":1744,"Take":1745,"bed":1746,"ever":1747,"ring":1748,"ten":1749,"Ġsight":1750,"Ġmon":1751,"Ġgener":1752,"ides":1753,"idow":1754,"Ġdoes":1755,"Though":1756,"Ġreturn":1757,"Ġmercy":1758,"Ġfarewell":1759,"ac":1760,"dom":1761,"mp":1762,"ĠAN":1763,"hes":1764,"Ġsit":1765,"Ġsad":1766,"rel":1767,"Ġdeep":1768,"ters":1769,"Ġgold":1770,"unes":1771,"Ġmarry":1772,"Ġheavy":1773,"Ġfoot":1774,"Ġwarrant":1775,"ĠJul":1776,"Ġpurpose":1777,"Ġthrough":1778,"Ġdanger":1779,"ĠANNE":1780,"Ah":1781,"Did":1782,"Give":1783,"PR":1784,"aim":1785,"ict":1786,"mer":1787,"so":1788,"und":1789,"vent":1790,"Ġill":1791,"Ġcho":1792,"Ġcold":1793,"Ġnurse":1794,"Ġtogether":1795,"Ġgrow":1796,"ours":1797,"ifford":1798,"Ġsure":1799,"earn":1800,"CAPULET":1801,"ignior":1802,"INCE":1803,"Ġdeser":1804,"ments":1805,"PRINCE":1806,"az":1807,"aid":1808,"ca":1809,"oint":1810,"Ġtimes":1811,"oriol":1812,"ingbroke":1813,"ceed":1814,"Ġwithout":1815,"enty":1816,"Ġask":1817,"ross":1818,"ush":1819,"Ġlost":1820,"arewell":1821,"olingbroke":1822,"Ġpluck":1823,"Ġreport":1824,"Ġliege":1825,"Ġbelieve":1826,"Ġspirit":1827,"ling":1828,"sh":1829,"xt":1830,"Ġair":1831,"Ġage":1832,"outh":1833,"Ġwat":1834,"Ġheir":1835,"ets":1836,"ains":1837,"Ġthyself":1838,"ift":1839,"Ġloss":1840,"ĠMont":1841,"Ġsays":1842,"ĠBolingbroke":1843,"Whose":1844,"One":1845,"Ġstrange":1846,"ALO":1847,"Had":1848,"ial":1849,"no":1850,"ner":1851,"Ġbat":1852,"Ġcry":1853,"Ġlearn":1854,"ced":1855,"Ġsuff":1856,"aking":1857,"Ġears":1858,"Ġhaste":1859,"ĠClifford":1860,"Ġentreat":1861,"Ġdevil":1862,"Ġground":1863,"Should":1864,"Ġperson":1865,"ĠJuliet":1866,"Like":1867,"Wh":1868,"ges":1869,"night":1870,"Ġmur":1871,"ined":1872,"Ġfly":1873,"Ġtoward":1874,"Ġpast":1875,"oman":1876,"let":1877,"Ġfast":1878,"Ġvis":1879,"aud":1880,"ĠLu":1881,"Ġpoint":1882,"Ġfriar":1883,"Ġdisp":1884,"Ġslain":1885,"Ġbetw":1886,"ĠFrance":1887,"ixt":1888,"Ġjustice":1889,"Ġstraight":1890,"Ġremember":1891,"APULET":1892,"FL":1893,"FID":1894,"IZ":1895,"May":1896,"Some":1897,"Ġord":1898,"Ġsil":1899,"ina":1900,"Ġbold":1901,"Ġcurse":1902,"Ġnear":1903,"ution":1904,"Ġstrong":1905,"These":1906,"ĠCAPULET":1907,"ORIZ":1908,"Ġworthy":1909,"Ġquick":1910,"AUFID":1911,"entleman":1912,"Ġtrust":1913,"Ġalone":1914,"Ġdesire":1915,"Ġinstru":1916,"Ġbeauty":1917,"Ġservice":1918,"FLORIZ":1919,"AUFIDIUS":1920,"FLORIZEL":1921,"Can":1922,"SE":1923,"Tell":1924,"VER":1925,"gs":1926,"ning":1927,"ship":1928,"with":1929,"Ġtouch":1930,"Ġfound":1931,"ithe":1932,"ĠIs":1933,"adam":1934,"Ġready":1935,"ION":1936,"Ġbrought":1937,"ured":1938,"Ġposs":1939,"ĠTybalt":1940,"Ġrun":1941,"Ġhard":1942,"Ġenemy":1943,"Ġrevenge":1944,"Ġgeneral":1945,"audio":1946,"!'":1947,"Ha":1948,"ible":1949,"vo":1950,"ĠHere":1951,"Ġwoo":1952,"Ġduty":1953,"enator":1954,"Ġgrant":1955,"Ġinf":1956,"cept":1957,"Ġitself":1958,"amill":1959,"Ġlose":1960,"aunt":1961,"Ġknows":1962,"Ġcanst":1963,"ĠSenator":1964,"inks":1965,"umber":1966,"Ġmarried":1967,"Ġthoughts":1968,"Ġcharge":1969,"Against":1970,"Bec":1971,"CIUS":1972,"RICHARD":1973,"Sp":1974,"cester":1975,"eep":1976,"gu":1977,"lou":1978,"sue":1979,"ua":1980,"ĠYou":1981,"Ġmorn":1982,"Ġwear":1983,"riage":1984,"Ġread":1985,"Ġdeli":1986,"Ġspeed":1987,"Ġquar":1988,"Ġprof":1989,"Ġtwenty":1990,"Ġstands":1991,"BAST":1992,"Shepherd":1993,"ched":1994,"Ġhours":1995,"Ġconfess":1996,"Ġstreng":1997,"SEBAST":1998,"ithee":1999,"SEBASTIAN":2000,"OW":2001,"cess":2002,"ĠN":2003,"Ġmock":2004,"Ġfur":2005,"Ġfore":2006,"Ġfield":2007,"ones":2008,"Ġdiv":2009,"Ġcar":2010,"Ġyouth":2011,"Ġpost":2012,"Ġhell":2013,"ingham":2014,"Ġhalf":2015,"oop":2016,"Thus":2017,"ĠRi":2018,"olk":2019,"fection":2020,"ĠHast":2021,"Ġjud":2022,"ump":2023,"Ġexec":2024,"Ġfearful":2025,"Ġcounsel":2026,"amillo":2027,"BION":2028,"Com":2029,"DEL":2030,"Till":2031,"most":2032,"pare":2033,"Ġter":2034,"Ġmin":2035,"Ġwret":2036,"Ġbos":2037,"Ġpar":2038,"Ġbehold":2039,"Ġinc":2040,"Ġeach":2041,"ads":2042,"Ġrec":2043,"Ġdel":2044,"ĠCoriol":2045,"ols":2046,"Ġwork":2047,"ortal":2048,"Ġhearts":2049,"Ġmarriage":2050,"Ġdesp":2051,"ĠClaudio":2052,"itizens":2053,"uckingham":2054,"Ġresol":2055,"MARCIUS":2056,"ĠMontague":2057,"loucester":2058,"BIONDEL":2059,"Ġbosom":2060,"BIONDELLO":2061,"Away":2062,"MON":2063,"Madam":2064,"bly":2065,"folk":2066,"iers":2067,"now":2068,"ĠThe":2069,"Ġtit":2070,"Ġten":2071,"Ġtale":2072,"Ġbound":2073,"Ġdam":2074,"Ġcut":2075,"ench":2076,"Ġye":2077,"Ġopen":2078,"rah":2079,"alm":2080,"ĠCap":2081,"Ġshort":2082,"Ġknown":2083,"ĠBuckingham":2084,"Ġseek":2085,"Ġharm":2086,"Ġcompany":2087,"Ġguilt":2088,"Ġhighness":2089,"Ġstrike":2090,"Ġattend":2091,"Ġserve":2092,"Ġmurder":2093,"ĠHastings":2094,"Farewell":2095,"HER":2096,"OP":2097,"chan":2098,"hood":2099,"Ġve":2100,"ĠHe":2101,"ĠAU":2102,"Ġag":2103,"Ġsat":2104,"Ġside":2105,"Ġwhi":2106,"Ġwatch":2107,"rest":2108,"ished":2109,"Ġfeel":2110,"Ġdish":2111,"Ġdist":2112,"ents":2113,"ander":2114,"Ġsuit":2115,"Ġloving":2116,"ONIO":2117,"Ġhonest":2118,"Ġheavens":2119,"Ġtrib":2120,"MERLE":2121,"Ġdraw":2122,"Ġvoices":2123,"Ġsomething":2124,"ANTONIO":2125,"Ġstrength":2126,"ĠAUMERLE":2127,"Marry":2128,"Pray":2129,"See":2130,"ZALO":2131,"fid":2132,"ging":2133,"Ġact":2134,"Ġsake":2135,"Ġwast":2136,"Ġwonder":2137,"Ġwidow":2138,"Ġbit":2139,"Ġcor":2140,"Ġsto":2141,"Ġstir":2142,"ĠGentleman":2143,"ĠGloucester":2144,"ĠLanc":2145,"Ġdidst":2146,"Ġgentlemen":2147,"Ġcloud":2148,"Ġwomen":2149,"ethinks":2150,"Ġenemies":2151,"GONZALO":2152,"ĠLancaster":2153,"Unt":2154,"ives":2155,"su":2156,"Ġsing":2157,"Ġmusic":2158,"rew":2159,"Ġbreat":2160,"Ġdr":2161,"Ġpra":2162,"Ġpie":2163,"Ġpale":2164,"Ġgates":2165,"oose":2166,"race":2167,"ils":2168,"ĠCamillo":2169,"Ġnext":2170,"Ġknew":2171,"Ġcoming":2172,"Ġthanks":2173,"Ġclose":2174,"Ġpleasure":2175,"Ġsouls":2176,"ianca":2177,"Ġcourse":2178,"Ġenter":2179,"Ġwithal":2180,"Ġbrave":2181,"Ġchee":2182,"ceived":2183,"Ġtitle":2184,"DIO":2185,"fter":2186,"ne":2187,"vour":2188,"you":2189,"Ġty":2190,"Ġwa":2191,"Ġbur":2192,"Ġfit":2193,"oward":2194,"Ġgar":2195,"Ġbecome":2196,"etch":2197,"etru":2198,"Ġforg":2199,"Ġweak":2200,"Ġeither":2201,"Ġlips":2202,"rust":2203,"els":2204,"Ġjest":2205,"Ġplain":2206,"AUDIO":2207,"Ġabs":2208,"Ġpret":2209,"claim":2210,"Ġgrie":2211,"CLAUDIO":2212,"Ġchange":2213,"MIONE":2214,"ĠNorfolk":2215,"CLIFFORD":2216,"Ġsuffer":2217,"Ġdeliver":2218,"HERMIONE":2219,"DA":2220,"EDWARD":2221,"LORD":2222,"Most":2223,"cher":2224,"kes":2225,"ses":2226,"ufid":2227,"ĠTh":2228,"Ġsk":2229,"Ġsame":2230,"Ġsick":2231,"Ġsign":2232,"Ġwis":2233,"Ġwall":2234,"ready":2235,"isf":2236,"Ġcast":2237,"irth":2238,"chio":2239,"Ġforb":2240,"Ġforget":2241,"oof":2242,"ries":2243,"Ġreg":2244,"urp":2245,"east":2246,"Ġven":2247,"Ġthemselves":2248,"ĠBianca":2249,"Ġworse":2250,"ĠPom":2251,"Ġtook":2252,"Ġpoison":2253,"Ġalong":2254,"Ġrich":2255,"Ġbreast":2256,"ranio":2257,"Ġconsul":2258,"RANDA":2259,"MIRANDA":2260,"twas":2261,"twere":2262,"Ġcheer":2263,"Ġpatience":2264,"Ġmerry":2265,"Ġorder":2266,"etruchio":2267,"ufidius":2268,"HN":2269,"Messenger":2270,"OHN":2271,"SA":2272,"SON":2273,"Servant":2274,"lst":2275,"oin":2276,"ting":2277,"Ġmouth":2278,"Ġwed":2279,"Ġbad":2280,"Ġbook":2281,"Ġfour":2282,"Ġdu":2283,"ĠIf":2284,"Ġgave":2285,"chm":2286,"Ġissue":2287,"ash":2288,"Ġliber":2289,"vern":2290,"Ġself":2291,"ions":2292,"rows":2293,"ally":2294,"Ġoffice":2295,"Ġalready":2296,"Being":2297,"Ġmove":2298,"Ġvirtue":2299,"Ġgiven":2300,"Ġbattle":2301,"ĠHereford":2302,"Ġmorning":2303,"Ġfurther":2304,"Make":2305,"Since":2306,"mber":2307,"nk":2308,"pes":2309,"rist":2310,"she":2311,"uous":2312,"used":2313,"Ġta":2314,"Ġac":2315,"oun":2316,"Ġwise":2317,"Ġburn":2318,"orge":2319,"Ġfrown":2320,"Ġfeast":2321,"Ġdire":2322,"esh":2323,"Ġlad":2324,"Ġpay":2325,"anus":2326,"Ġgro":2327,"ats":2328,"Ġred":2329,"Ġsoft":2330,"each":2331,"Ġsucc":2332,"icer":2333,"Ġblack":2334,"Ġgoes":2335,"Ġsworn":2336,"ĠSignior":2337,"elcome":2338,"Ġprop":2339,"Ġsons":2340,"Ġfoe":2341,"Ġext":2342,"ĠTower":2343,"Before":2344,"Ġtrou":2345,"Ġbegg":2346,"Ġbegin":2347,"Ġconsent":2348,"dden":2349,"Ġsoldiers":2350,"Ġrequest":2351,"ĠLucentio":2352,"Ġbetween":2353,"Ġquarrel":2354,"Ġsatisf":2355,"chmond":2356,"AS":2357,"Call":2358,"IR":2359,"Must":2360,"NT":2361,"Re":2362,"Sw":2363,"Such":2364,"gare":2365,"ires":2366,"ures":2367,"ung":2368,"uff":2369,"ĠFor":2370,"hem":2371,"Ġservant":2372,"Ġbar":2373,"Ġdro":2374,"Ġdark":2375,"Ġcr":2376,"Ġcase":2377,"Ġthri":2378,"aris":2379,"ots":2380,"stand":2381,"owers":2382,"irm":2383,"Ġloves":2384,"ĠCh":2385,"ends":2386,"Ġbless":2387,"empt":2388,"Ġthence":2389,"Ġworth":2390,"ĠAufidius":2391,"CATES":2392,"Ġexp":2393,"awd":2394,"Ġpresence":2395,"Ġpriv":2396,"Unless":2397,"Alas":2398,"Ġwounds":2399,"Ġdangerous":2400,"Because":2401,"garet":2402,"CATESBY":2403,"LY":2404,"oll":2405,"that":2406,"Ġsigh":2407,"Ġble":2408,"ona":2409,"onour":2410,"Ġhot":2411,"Ġgot":2412,"Ġinter":2413,"Ġund":2414,"Ġev":2415,"Ġsum":2416,"Ġneither":2417,"Ġvict":2418,"emn":2419,"ĠLond":2420,"ĠSir":2421,"ĠVols":2422,"cient":2423,"Ġwars":2424,"Ġflatter":2425,"Ġmighty":2426,"Ġrespect":2427,"Ġdread":2428,"Ġbride":2429,"Ġbrief":2430,"Ġthrone":2431,"Ġvoice":2432,"Ġemb":2433,"aptist":2434,"Ġdeny":2435,"Ġspoke":2436,"Ġwater":2437,"Ġvisit":2438,"ĠLondon":2439,"Both":2440,"BIAN":2441,"JOHN":2442,"Lest":2443,"Rome":2444,"REY":2445,"Yes":2446,"eorge":2447,"ip":2448,"iant":2449,"mand":2450,"ught":2451,"Ġest":2452,"Ġmal":2453,"Ġmortal":2454,"Ġbow":2455,"Ġbab":2456,"Ġfra":2457,"ern":2458,"Ġhur":2459,"Ġtown":2460,"Ġoften":2461,"Ġhaving":2462,"right":2463,"ided":2464,"Ġsudden":2465,"rum":2466,"Ġancient":2467,"Ġspeech":2468,"Ġvow":2469,"ĠGeorge":2470,"Ġloved":2471,"Ġkings":2472,"ĠBaptist":2473,"Ġworship":2474,"LIA":2475,"ĠParis":2476,"Ġsafe":2477,"ired":2478,"ainted":2479,"BAL":2480,"ĠMargaret":2481,"Ġprincely":2482,"BRA":2483,"Ġchamber":2484,"Ġseems":2485,"bey":2486,"Ġbuy":2487,"Ġdeeds":2488,"Whom":2489,"VERS":2490,"ĠRichmond":2491,"Ġbitter":2492,"BIANCA":2493,"BOW":2494,"Welcome":2495,"king":2496,"ls":2497,"lish":2498,"mb":2499,"rt":2500,"sp":2501,"ura":2502,"ĠThou":2503,"ĠThis":2504,"Ġfres":2505,"Ġfetch":2506,"Ġcol":2507,"Ġcross":2508,"Ġcoward":2509,"essed":2510,"Ġlim":2511,"Ġpen":2512,"otion":2513,"ated":2514,"urch":2515,"Ġknock":2516,"antage":2517,"oney":2518,"Ġprot":2519,"ĠGAU":2520,"ĠLady":2521,"ĠSaint":2522,"ĠServant":2523,"Ġkingdom":2524,"ĠPl":2525,"Ġsac":2526,"ELBOW":2527,"Ġheads":2528,"Ġscorn":2529,"Ġrage":2530,"Ġappear":2531,"Ġlead":2532,"Ġwitness":2533,"RIVERS":2534,"Ġpatient":2535,"Ġpromise":2536,"Ġlament":2537,"Ġvaliant":2538,"ĠIsab":2539,"Speak":2540,"Ġsuccess":2541,"ĠBaptista":2542,"ĠGAUNT":2543,"Bes":2544,"Ere":2545,"GUE":2546,"Hold":2547,"TY":2548,"cy":2549,"coun":2550,"nown":2551,"sper":2552,"will":2553,"xford":2554,"ĠKING":2555,"Ġign":2556,"Ġaction":2557,"Ġbro":2558,"Ġbawd":2559,"ities":2560,"Ġcle":2561,"Ġcreat":2562,"Ġcap":2563,"Ġlack":2564,"Ġthrow":2565,"Ġow":2566,"Ġopp":2567,"Ġgall":2568,"Ġforward":2569,"Ġeat":2570,"Ġkins":2571,"Their":2572,"iff":2573,"Ġang":2574,"Ġviol":2575,"antag":2576,"Ġprin":2577,"Ġprithee":2578,"ĠMy":2579,"Ġwash":2580,"ortens":2581,"aken":2582,"ĠPetruchio":2583,"Ġoffer":2584,"Ġleast":2585,"Ġslave":2586,"Ġflesh":2587,"ĠTranio":2588,"Ġprepare":2589,"Ġprayers":2590,"then":2591,"Ġappro":2592,"TAGUE":2593,"Ġtriump":2594,"Ġmoon":2595,"Ġcompl":2596,"itted":2597,"Ġtribunes":2598,"Ġdrink":2599,"ĠChrist":2600,"Romeo":2601,"ortensio":2602,"Yea":2603,"bit":2604,"but":2605,"ees":2606,"joy":2607,"ler":2608,"oor":2609,"ohem":2610,"vest":2611,"Ġid":2612,"Ġsur":2613,"Ġmid":2614,"ines":2615,"Ġfie":2616,"Ġdest":2617,"Ġnay":2618,"Ġthither":2619,"Ġhide":2620,"athar":2621,"Ġbeast":2622,"ley":2623,"Ġreb":2624,"raw":2625,"als":2626,"alth":2627,"cks":2628,"thumber":2629,"host":2630,"asters":2631,"feit":2632,"aked":2633,"pey":2634,"Ġalmost":2635,"ully":2636,"Ġscar":2637,"Ġsmall":2638,"Ġpresently":2639,"Ġfaults":2640,"Ġdepart":2641,"Ġsecret":2642,"Ġsubjects":2643,"Ġdefend":2644,"Ġpossess":2645,"atharina":2646,"thumberland":2647,"Con":2648,"DI":2649,"GI":2650,"IEL":2651,"Pl":2652,"VIR":2653,"Whi":2654,"aul":2655,"hind":2656,"ying":2657,"Ġtear":2658,"Ġwert":2659,"rey":2660,"Ġben":2661,"Ġbase":2662,"Ġbirth":2663,"Ġfill":2664,"Ġfond":2665,"Ġlab":2666,"arl":2667,"Ġpain":2668,"inger":2669,"Ġbec":2670,"Ġform":2671,"Ġeas":2672,"Ġstru":2673,"Ġliving":2674,"rue":2675,"though":2676,"Ġgoodly":2677,"Ġwhence":2678,"ĠGREY":2679,"Ġusurp":2680,"cience":2681,"Ġtrump":2682,"Ġhearing":2683,"Ġslaughter":2684,"Ġperform":2685,"Ġwrit":2686,"perate":2687,"ledge":2688,"Stay":2689,"Stand":2690,"Ġchance":2691,"PERDI":2692,"Ġvirtuous":2693,"Ġquickly":2694,"MONTAGUE":2695,"Ġdamn":2696,"ural":2697,"ohemia":2698,"GILIA":2699,"VIRGILIA":2700,"PERDITA":2701,"Ab":2702,"Doth":2703,"Peace":2704,"SET":2705,"SLY":2706,"ding":2707,"eem":2708,"gg":2709,"iest":2710,"over":2711,"oss":2712,"ror":2713,"your":2714,"ze":2715,"Ġut":2716,"Ġtor":2717,"Ġay":2718,"Ġmatch":2719,"Ġmild":2720,"Ġwild":2721,"read":2722,"isure":2723,"Ġfier":2724,"ony":2725,"Ġca":2726,"Ġcertain":2727,"arn":2728,"Ġpu":2729,"Ġpit":2730,"ingly":2731,"sem":2732,"Ġinj":2733,"Ġins":2734,"Ġinno":2735,"eds":2736,"edant":2737,"Ġur":2738,"Ġshad":2739,"Think":2740,"Ġknee":2741,"Ġkneel":2742,"astard":2743,"ustom":2744,"Ġblows":2745,"ĠSt":2746,"ĠOxford":2747,"Ġquiet":2748,"Ġproceed":2749,"ĠPaul":2750,"Ġhadst":2751,"Ġoffence":2752,"Ġadm":2753,"Ġpleas":2754,"force":2755,"Ġaffection":2756,"Ġslew":2757,"IANA":2758,"Ġlawful":2759,"Ġglad":2760,"bling":2761,"Ġweeping":2762,"MARIANA":2763,"Ġsoldier":2764,"Ġawhile":2765,"Ġdeserved":2766,"Ġexecution":2767,"ĠCoriolanus":2768,"Ġguilty":2769,"Ġpretty":2770,"ĠPompey":2771,"Ġangry":2772,"Fa":2773,"Mar":2774,"Master":2775,"PAR":2776,"RA":2777,"VINCENTIO":2778,"awn":2779,"dge":2780,"fully":2781,"gue":2782,"ked":2783,"med":2784,"ual":2785,"vol":2786,"zen":2787,"Ġap":2788,"Ġshi":2789,"Ġsho":2790,"Ġmed":2791,"Ġmod":2792,"Ġwalk":2793,"Ġfam":2794,"Ġfled":2795,"eness":2796,"Ġyear":2797,"Ġob":2798,"Ġocc":2799,"Ġhap":2800,"Ġmeasure":2801,"Ġforsw":2802,"adua":2803,"Ġreign":2804,"Ġdoom":2805,"ames":2806,"Ġnob":2807,"rupt":2808,"Ġourselves":2809,"Ġfavour":2810,"Ġneck":2811,"Ġshows":2812,"ended":2813,"Ġblow":2814,"Ġgovern":2815,"Ġwouldst":2816,"Ġletters":2817,"Ġunc":2818,"Ġunk":2819,"Ġworst":2820,"Ġspeaks":2821,"Ġmarch":2822,"ighb":2823,"ĠKatharina":2824,"Ġgreater":2825,"Ġleisure":2826,"osition":2827,"Ġtreason":2828,"ĠEnglish":2829,"Ġbanishment":2830,"Ġsense":2831,"remio":2832,"Ġcondemn":2833,"ointed":2834,"Ġdishonour":2835,"Ġclouds":2836,"Ġbreathe":2837,"Ġforbid":2838,"Ġliberty":2839,"Ġladies":2840,"Ġtrouble":2841,"rumio":2842,"ĠIsabel":2843,"counter":2844,"antagen":2845,"PARIS":2846,":'":2847,"Int":2848,"Out":2849,"Too":2850,"While":2851,"aves":2852,"acle":2853,"dle":2854,"house":2855,"rim":2856,"rous":2857,"ĠX":2858,"Ġsort":2859,"Ġmorrow":2860,"Ġwon":2861,"Ġdry":2862,"Ġcru":2863,"Ġlan":2864,"Ġlist":2865,"Ġlaid":2866,"aring":2867,"Ġobey":2868,"Ġheld":2869,"vel":2870,"ster":2871,"ators":2872,"Ġbehind":2873,"set":2874,"Ġnote":2875,"Ġstor":2876,"ider":2877,"Ġref":2878,"Ġlived":2879,"urs":2880,"Ġaside":2881,"Ġdog":2882,"Ġnoise":2883,"Ġseat":2884,"iles":2885,"Ġvain":2886,"ĠMerc":2887,"ĠBohemia":2888,"Ġletter":2889,"Ġjoin":2890,"ounds":2891,"Ġprosper":2892,"Ġrough":2893,"Ġabove":2894,"ize":2895,"Ġremain":2896,"Ġlonger":2897,"Ġwomb":2898,"Ġneeds":2899,"Ġchoose":2900,"Ġchurch":2901,"Ġprisoner":2902,"Ġsecond":2903,"Ġtemp":2904,"Ġgolden":2905,"undred":2906,"Ġdispatch":2907,"Ġpiece":2908,"Ġfresh":2909,"Ġignor":2910,"Ġbecause":2911,"antagenet":2912,"!--":2913,"Am":2914,"De":2915,"DOR":2916,"EW":2917,"En":2918,"Hark":2919,"LAR":2920,"Pr":2921,"Su":2922,"TIUS":2923,"bb":2924,"ban":2925,"cal":2926,"ffect":2927,"him":2928,"iled":2929,"ny":2930,"ts":2931,"under":2932,"ulet":2933,"ĠNow":2934,"Ġtent":2935,"Ġsch":2936,"Ġsus":2937,"Ġsaint":2938,"Ġmut":2939,"inius":2940,"Ġbig":2941,"Ġbroke":2942,"Ġbones":2943,"Ġfat":2944,"Ġfine":2945,"Ġfive":2946,"erle":2947,"itors":2948,"Ġdrown":2949,"Ġcitizens":2950,"Ġlen":2951,"Ġlow":2952,"Ġlust":2953,"Ġlau":2954,"Ġthreat":2955,"Ġhundred":2956,"Ġobed":2957,"Ġpet":2958,"vey":2959,"ang":2960,"Ġoft":2961,"Ġbend":2962,"Ġbell":2963,"Ġind":2964,"ceit":2965,"lease":2966,"ety":2967,"Ġeffect":2968,"Ġyourselves":2969,"Ġstood":2970,"Ġstain":2971,"Ġsteel":2972,"Ġsteal":2973,"ords":2974,"asion":2975,"Ġrevere":2976,"Ġsole":2977,"ARIEL":2978,"ease":2979,"Ġknees":2980,"ular":2981,"icious":2982,"Ġconqu":2983,"ieu":2984,"Ġblessed":2985,"ĠGaunt":2986,"ĠGremio":2987,"Ġshed":2988,"ĠLet":2989,"ĠLEW":2990,"Ġswift":2991,"ĠHortensio":2992,"Ġgrand":2993,"Ġproclaim":2994,"ĠPr":2995,"ĠPadua":2996,"Ġsaf":2997,"ume":2998,"ĠWatch":2999,"istress":3000,"Ġexc":3001,"Ġdesperate":3002,"Ġslander":3003,"Ġprecious":3004,"Ġbears":3005,"Ġappare":3006,"Ġconscience":3007,"Ġentertain":3008,"ontent":3009,"Ġpride":3010,"Sirrah":3011,"uthor":3012,"Ġglory":3013,"Ġdouble":3014,"atesby":3015,"Ġwoes":3016,"posed":3017,"Ġlands":3018,"Ġsentence":3019,"ĠNorthumberland":3020,"Ġdrunk":3021,"Ġtowards":3022,"ĠCapulet":3023,"Unto":3024,"Ġforgot":3025,"Ġwisdom":3026,"Ġvenge":3027,"Sweet":3028,"Ġvictory":3029,"Ġkinsman":3030,"ĠXI":3031,"LARTIUS":3032,"ĠLEWIS":3033,"ĠWatchman":3034,";'":3035,"Bel":3036,"Could":3037,"Hear":3038,"MP":3039,"Me":3040,"Pardon":3041,"Pedant":3042,"RTIS":3043,"bray":3044,"den":3045,"gment":3046,"hn":3047,"iance":3048,"ohn":3049,"pir":3050,"ude":3051,"vail":3052,"which":3053,"head":3054,"Ġauthor":3055,"Ġsour":3056,"Ġmount":3057,"Ġmethinks":3058,"Ġmoney":3059,"Ġmasters":3060,"rent":3061,"rence":3062,"Ġfe":3063,"Ġfru":3064,"Ġfought":3065,"Ġfew":3066,"Ġdied":3067,"Ġdeter":3068,"Ġcapt":3069,"Ġpun":3070,"owbray":3071,"Ġhair":3072,"irl":3073,"Ġeld":3074,"Ġstud":3075,"estion":3076,"Ġdoing":3077,"iful":3078,"Ġseal":3079,"ility":3080,"ĠCa":3081,"cted":3082,"ETER":3083,"Ġmanner":3084,"ĠEarl":3085,"ĠGo":3086,"ĠGrumio":3087,"Ġknowledge":3088,"umerle":3089,"Ġenjoy":3090,"Ġran":3091,"ĠAnt":3092,"Within":3093,"Ġalive":3094,"Ġabro":3095,"ways":3096,"Ġhonours":3097,"Ġwarm":3098,"ations":3099,"Ġdeadly":3100,"Ġkept":3101,"Ġcontr":3102,"Ġcontin":3103,"Ġarmy":3104,"Ġlordship":3105,"Ġguest":3106,"Ġguess":3107,"CURTIS":3108,"Ġpromised":3109,"comes":3110,"eeper":3111,"Ġwretched":3112,"Ġdespair":3113,"Ġcheeks":3114,"SAMP":3115,"Ġlabour":3116,"Ġstruck":3117,"Faith":3118,"Ġdeterm":3119,"SAMPSON":3120,"'re":3121,":--":3122,"BU":3123,"Br":3124,"Citizens":3125,"Dis":3126,"EX":3127,"Either":3128,"IGON":3129,"bury":3130,"ey":3131,"good":3132,"mit":3133,"take":3134,"Ġtry":3135,"Ġteach":3136,"Ġaid":3137,"ounce":3138,"Ġsim":3139,"reed":3140,"Ġbastard":3141,"orious":3142,"llow":3143,"ited":3144,"Ġdance":3145,"Ġcorn":3146,"Ġcred":3147,"Ġcried":3148,"Ġpal":3149,"Ġhel":3150,"Ġhealth":3151,"stant":3152,"utio":3153,"ourn":3154,"Ġliest":3155,"Ġdeg":3156,"Ġdemand":3157,"Ġshake":3158,"eaven":3159,"ament":3160,"Ġsever":3161,"Ġherself":3162,"Ġspent":3163,"ĠMaster":3164,"ĠMowbray":3165,"Ġwhether":3166,"Ġamong":3167,"Ġshepherd":3168,"othing":3169,"ppy":3170,"Ġunp":3171,"Ġunw":3172,"ĠHow":3173,"Ġquoth":3174,"Ġprov":3175,"umb":3176,"Ġplant":3177,"ĠWill":3178,"ĠWhy":3179,"osed":3180,"Ġencounter":3181,"Ġrot":3182,"Ġofficer":3183,"Ġbrothers":3184,"Ġearly":3185,"Ġhonourable":3186,"Ġflowers":3187,"LEY":3188,"Ġcalls":3189,"Ġwhite":3190,"Ġremed":3191,"Ġmoved":3192,"Ġaccount":3193,"ewis":3194,"Ġkindred":3195,"Ġpriest":3196,"Ġguard":3197,"Ġcharity":3198,"Ġunderstand":3199,"Ġfoolish":3200,"Ġhumble":3201,"Ġcounter":3202,"Ġdreams":3203,"Ġgreet":3204,"ANTIGON":3205,"Ġvalour":3206,"Ġjudge":3207,"Ġwretch":3208,"Ġbeggar":3209,"Ġsummer":3210,"Ġtriumph":3211,"Ġcruel":3212,"BURY":3213,"ANTIGONUS":3214,"Bet":3215,"Fear":3216,"Lo":3217,"Mine":3218,"Made":3219,"TCLIFF":3220,"True":3221,"fall":3222,"mon":3223,"rison":3224,"ĠAnd":3225,"heart":3226,"ining":3227,"Ġwail":3228,"orthy":3229,"Ġfart":3230,"Ġfaint":3231,"ites":3232,"Ġdin":3233,"Ġdwell":3234,"Ġyea":3235,"Ġthro":3236,"Ġhung":3237,"Ġpack":3238,"Ġga":3239,"Ġgent":3240,"leep":3241,"Ġforce":3242,"Ġweary":3243,"Ġstone":3244,"Ġstars":3245,"ask":3246,"roy":3247,"Ġbutcher":3248,"ify":3249,"Ġseven":3250,"Ġanon":3251,"Ġours":3252,"ĠCom":3253,"Ġneighb":3254,"ĠRoman":3255,"Ġvie":3256,"ief":3257,"Ġblame":3258,"Ġgoing":3259,"ĠLewis":3260,"Ġthereof":3261,"Ġunf":3262,"Ġuns":3263,"Ġenvy":3264,"Ġrise":3265,"Ġthinks":3266,"Ġrid":3267,"Ġparty":3268,"Ġadd":3269,"Ġothers":3270,"ĠJohn":3271,"ians":3272,"Ġkindness":3273,"Ġchast":3274,"Ġbids":3275,"Ġbright":3276,"Ġglass":3277,"Ġmiser":3278,"Ġcrave":3279,"Twas":3280,"Ġwinter":3281,"Ġmonth":3282,"Ġminister":3283,"Ġwalls":3284,"Ġextrem":3285,"Ġsatisfied":3286,"Ġprivate":3287,"ĠVolsces":3288,"Ġidle":3289,"Ġscarce":3290,"Ġbenef":3291,"RATCLIFF":3292,"Ġlaugh":3293,"Ġvengeance":3294,"Ġabroad":3295,"Ġview":3296,"After":3297,"Bid":3298,"BIS":3299,"Fie":3300,"Gentle":3301,"HOP":3302,"Ne":3303,"Never":3304,"Signior":3305,"Under":3306,"aff":3307,"gra":3308,"ners":3309,"ope":3310,"shall":3311,"ued":3312,"vious":3313,"whe":3314,"woman":3315,"Ġver":3316,"incentio":3317,"Ġwre":3318,"Ġwench":3319,"rees":3320,"have":3321,"orous":3322,"Ġfirm":3323,"Ġcir":3324,"Ġcorse":3325,"enes":3326,"Ġlest":3327,"Ġhol":3328,"vell":3329,"ott":3330,"omas":3331,"att":3332,"ating":3333,"Ġincl":3334,"cell":3335,"utland":3336,"Ġformer":3337,"Ġease":3338,"riar":3339,"ident":3340,"Ġrel":3341,"Ġreceived":3342,"Ġdeal":3343,"amp":3344,"Ġsport":3345,"Ġfaire":3346,"ANLEY":3347,"ĠRutland":3348,"Ġvile":3349,"Ġshrew":3350,"antua":3351,"ĠMantua":3352,"Ġconcl":3353,"Ġconvey":3354,"Ġgod":3355,"allow":3356,"ĠBarn":3357,"Ġarri":3358,"Ġunb":3359,"ĠHer":3360,"ĠVincentio":3361,"Ġmayst":3362,"eless":3363,"Ġquite":3364,"Ġprovost":3365,"IST":3366,"Ġtruly":3367,"Ġdism":3368,"Off":3369,"Ġfoes":3370,"Ġroot":3371,"Ġwherefore":3372,"Ġflower":3373,"Ġimag":3374,"Ġtrial":3375,"ailor":3376,"Ġsmo":3377,"Ġtrem":3378,"Ġfellows":3379,"rench":3380,"Ġchanged":3381,"Ġcover":3382,"Ġhumour":3383,"Ġboot":3384,"Ġswords":3385,"Ġdeputy":3386,"Ġcondition":3387,"Ġjudgment":3388,"change":3389,"Ġtyrant":3390,"Ġacqu":3391,"Ġevil":3392,"BALT":3393,"TYBALT":3394,"Whilst":3395,"Ġeasy":3396,"ĠMercutio":3397,"Ġschool":3398,"Ġexcuse":3399,"Ġfruit":3400,"BISHOP":3401,"'?":3402,"AL":3403,"Bl":3404,"Des":3405,"Ex":3406,"KEN":3407,"Methinks":3408,"Put":3409,"Tut":3410,"ault":3411,"after":3412,"con":3413,"ek":3414,"ead":3415,"ered":3416,"his":3417,"oot":3418,"pin":3419,"roth":3420,"rate":3421,"shi":3422,"ta":3423,"vish":3424,"Ġtaken":3425,"Ġwither":3426,"Ġba":3427,"Ġbrow":3428,"Ġbite":3429,"Ġbrows":3430,"Ġfain":3431,"Ġfeed":3432,"erona":3433,"Ġdust":3434,"Ġdull":3435,"enance":3436,"Ġthunder":3437,"Ġpains":3438,"anley":3439,"Ġgown":3440,"Ġgrown":3441,"Ġgift":3442,"Ġghost":3443,"Ġgirl":3444,"Ġbeha":3445,"Ġmeat":3446,"rift":3447,"Ġstab":3448,"Ġstoop":3449,"idings":3450,"ract":3451,"arden":3452,"Ġspe":3453,"Ġspake":3454,"Ġspring":3455,"ilia":3456,"ĠCatesby":3457,"Ġknave":3458,"AND":3459,"Ġvice":3460,"aste":3461,"Ġshore":3462,"Ġproof":3463,"Ġblest":3464,"Ġblind":3465,"ement":3466,"Ġsirrah":3467,"Ġunl":3468,"Ġquestion":3469,"Ġjoint":3470,"cians":3471,"ĠWe":3472,"ĠAl":3473,"ĠAumerle":3474,"Ġhonesty":3475,"ursed":3476,"Ġleaves":3477,"Ġtwice":3478,"aper":3479,"ĠKeeper":3480,"Ġprevent":3481,"OMAS":3482,"there":3483,"ĠMars":3484,"Ġrepent":3485,"Ġtraitors":3486,"twixt":3487,"Ġimport":3488,"Ġwrongs":3489,"Ġburied":3490,"ealous":3491,"place":3492,"Ġreasons":3493,"Alack":3494,"Ġsenate":3495,"Ġgreen":3496,"Ġaffair":3497,"acher":3498,"Ġchoice":3499,"azed":3500,"Ġdivine":3501,"ĠCorioli":3502,"Ġwhilst":3503,"Ġstop":3504,"Ġtyran":3505,"Ġprophe":3506,"Ġembrace":3507,"Ġmalice":3508,"BRAKEN":3509,"ĠPlantagenet":3510,"Ġsacred":3511,"Ġfiery":3512,"Ġinnocent":3513,"ĠPaulina":3514,"Ġleng":3515,"ĠPrince":3516,"Ġsafety":3517,"ĠCominius":3518,"BRAKENBURY":3519,"?'":3520,"Ad":3521,"DER":3522,"DON":3523,"Edward":3524,"GOR":3525,"Hence":3526,"Ind":3527,"MIST":3528,"Once":3529,"Richard":3530,"RESS":3531,"cha":3532,"draw":3533,"eld":3534,"go":3535,"mn":3536,"my":3537,"more":3538,"nat":3539,"op":3540,"oly":3541,"oard":3542,"pet":3543,"port":3544,"poll":3545,"sic":3546,"would":3547,"Ġed":3548,"ĠTo":3549,"Ġavo":3550,"Ġsits":3551,"inous":3552,"Ġwag":3553,"Ġwings":3554,"rehe":3555,"Ġbark":3556,"orry":3557,"Ġfury":3558,"Ġfinger":3559,"erset":3560,"itol":3561,"Ġcustom":3562,"enen":3563,"anch":3564,"omerset":3565,"Ġgross":3566,"Ġgarden":3567,"Ġinform":3568,"edious":3569,"Ġused":3570,"Ġweeds":3571,"Ġele":3572,"Ġeag":3573,"Ġstones":3574,"Ġdec":3575,"Ġdoor":3576,"Ġnose":3577,"Ġallow":3578,"think":3579,"Ġanger":3580,"ardine":3581,"Ġloath":3582,"Ġloyal":3583,"ellow":3584,"Ġfares":3585,"Ġnecess":3586,"Ġknight":3587,"ctise":3588,"Ġshr":3589,"Ġoracle":3590,"ĠOVER":3591,"Myself":3592,"hysic":3593,"Ġmayor":3594,"elve":3595,"Ġhollow":3596,"Ġsail":3597,"Ġplague":3598,"unning":3599,"Ġround":3600,"Ġfright":3601,"icked":3602,"Without":3603,"Ġalways":3604,"Ġrob":3605,"Ġrock":3606,"Ġwherein":3607,"Ġdesign":3608,"Wherein":3609,"aughters":3610,"Ġadieu":3611,"Ġcommend":3612,"Ġclaim":3613,"Ġprevail":3614,"Ġprayer":3615,"PETER":3616,"Ġplead":3617,"Ġperceive":3618,"Ġtroth":3619,"Ġrude":3620,"Ġtongues":3621,"Ġsubst":3622,"Ġsmile":3623,"Ġimprison":3624,"Ġcares":3625,"GREGOR":3626,"Ġdrawn":3627,"Ġempt":3628,"Ġwanton":3629,"Ġassist":3630,"unts":3631,"Ġtempt":3632,"Ġdeserve":3633,"Ġdelight":3634,"ĠCapitol":3635,"Ġpractise":3636,"Ġcheek":3637,"Ġabsence":3638,"ĠThomas":3639,"Ġdrop":3640,"Ġcreature":3641,"Ġtrumpets":3642,"Ġutter":3643,"Ġlangu":3644,"Ġignorant":3645,"Brother":3646,"Ġrotten":3647,"Ġremedy":3648,"Ġcirc":3649,"ĠBarnardine":3650,"DERBY":3651,"DONE":3652,"Indeed":3653,"MISTRESS":3654,"enenius":3655,"ĠOVERDONE":3656,"GREGORY":3657,"Art":3658,"CH":3659,"Dost":3660,"FORD":3661,"OX":3662,"Poor":3663,"Res":3664,"RICH":3665,"SOM":3666,"Turn":3667,"VAL":3668,"act":3669,"dy":3670,"eous":3671,"mion":3672,"sing":3673,"thi":3674,"what":3675,"yard":3676,"Ġes":3677,"ĠWhere":3678,"Ġtune":3679,"Ġtidings":3680,"Ġtedious":3681,"held":3682,"Ġaim":3683,"Ġaught":3684,"Ġship":3685,"Ġsens":3686,"Ġwent":3687,"Ġwont":3688,"Ġwives":3689,"Ġwicked":3690,"haps":3691,"isa":3692,"ises":3693,"onounce":3694,"Ġdur":3695,"Ġcre":3696,"Ġcell":3697,"Ġcure":3698,"Ġcarry":3699,"Ġcries":3700,"esy":3701,"Ġnumber":3702,"Ġlar":3703,"Ġloud":3704,"Ġthrust":3705,"Ġhit":3706,"Ġhid":3707,"Ġpil":3708,"Ġpair":3709,"othe":3710,"Ġbecomes":3711,"cend":3712,"utes":3713,"iment":3714,"rious":3715,"Ġstar":3716,"Ġstat":3717,"Ġsteed":3718,"ashi":3719,"Ġreceive":3720,"Ġasleep":3721,"Ġdew":3722,"Ġdeceived":3723,"Ġdeposed":3724,"Ġshar":3725,"this":3726,"ards":3727,"hant":3728,"Ġvantage":3729,"ERIA":3730,"ERSET":3731,"ĠMusic":3732,"Ġconj":3733,"ongs":3734,"ĠGrey":3735,"Ġsheep":3736,"Ġtherein":3737,"ĠSic":3738,"ĠSomerset":3739,"ĠVerona":3740,"Ġjealous":3741,"Ġshouldst":3742,"Ġproper":3743,"Ġras":3744,"Ġoutward":3745,"Ġwhole":3746,"Ġoffend":3747,"ĠYour":3748,"Ġalas":3749,"Ġheav":3750,"Ġearn":3751,"eeth":3752,"Ġmeaning":3753,"aced":3754,"Ġchief":3755,"Ġbegins":3756,"ĠJove":3757,"Ġruin":3758,"loved":3759,"ission":3760,"Ġresign":3761,"Ġfollows":3762,"Ġtread":3763,"Ġtreacher":3764,"ethought":3765,"Ġbanished":3766,"Ġpassing":3767,"Ġwoful":3768,"Ġdevise":3769,"Ġfollowers":3770,"Ġfools":3771,"Ġmaids":3772,"Show":3773,"Ġadvise":3774,"Ġgives":3775,"itting":3776,"Ġrememb":3777,"Ġawake":3778,"Ġborne":3779,"Ġsupper":3780,"Ġlamb":3781,"Ġcondu":3782,"aze":3783,"Ġsilence":3784,"Ġpossible":3785,"Having":3786,"Ġprofess":3787,"Ġdespite":3788,"MOND":3789,"Ġgarments":3790,"Ġcastle":3791,"Ġthrive":3792,"Ġexpress":3793,"Ġundone":3794,"Ġdreadful":3795,"Ġbabe":3796,"Ġprotect":3797,"Besides":3798,"Ġbroken":3799,"Ġviolent":3800,"ĠChristian":3801,"Ġpubl":3802,"Ġoccasion":3803,"Ġnobles":3804,"Into":3805,"ursday":3806,"Ġfatal":3807,"Ġbelly":3808,"Ġauthority":3809,"Ġsimple":3810,"Ġfarther":3811,"Ġthroat":3812,"Ġbenefit":3813,"pinion":3814,"Ġaffairs":3815,"pollo":3816,"OXFORD":3817,"RICHMOND":3818,"SOMERSET":3819,"VALERIA":3820,"mione":3821,"AMIL":3822,"BUS":3823,"Great":3824,"HY":3825,"Hast":3826,"LIUS":3827,"MOP":3828,"MAMIL":3829,"Per":3830,"Tybalt":3831,"Tailor":3832,"Very":3833,"app":3834,"cing":3835,"can":3836,"eg":3837,"fl":3838,"father":3839,"gle":3840,"iond":3841,"oat":3842,"pr":3843,"ron":3844,"son":3845,"ub":3846,"Ġer":3847,"Ġir":3848,"ĠThere":3849,"Ġtort":3850,"Ġtaste":3851,"Ġsan":3852,"Ġsix":3853,"Ġsorry":3854,"Ġwine":3855,"Ġwander":3856,"Ġband":3857,"Ġbond":3858,"erved":3859,"itude":3860,"Ġdet":3861,"Ġdue":3862,"Ġcal":3863,"Ġcam":3864,"Ġcunning":3865,"ene":3866,"enn":3867,"Ġnine":3868,"Ġnames":3869,"Ġlend":3870,"arch":3871,"Ġtop":3872,"Ġpin":3873,"Ġpawn":3874,"Ġpaper":3875,"Ġphysic":3876,"Ġgain":3877,"Ġgage":3878,"Ġbelike":3879,"Ġbeheld":3880,"Ġinfect":3881,"ldom":3882,"eding":3883,"utation":3884,"Ġweight":3885,"Ġweap":3886,"ills":3887,"Ġequ":3888,"enture":3889,"Ġstore":3890,"Ġstep":3891,"Ġstock":3892,"Ġstuff":3893,"Ġrenown":3894,"rand":3895,"Ġlip":3896,"Ġdeare":3897,"room":3898,"eave":3899,"usion":3900,"iffe":3901,"Ġseas":3902,"Ġsup":3903,"run":3904,"Ġange":3905,"Ġlod":3906,"ello":3907,"Ġspend":3908,"Ġspare":3909,"hop":3910,"Ġvan":3911,"ouses":3912,"Ġshut":3913,"ustice":3914,"ĠMOW":3915,"ĠMenenius":3916,"olix":3917,"Ġsway":3918,"Ġbrook":3919,"Ġkingly":3920,"ĠBona":3921,"Ġunnat":3922,"ĠHarry":3923,"Ġquit":3924,"imely":3925,"Ġenvious":3926,"Ġrash":3927,"Ġdisd":3928,"ABHOR":3929,"Ġroom":3930,"Ġexile":3931,"Ġexcell":3932,"Ġdesert":3933,"Ġgentlewoman":3934,"Ġflight":3935,"Ġtwelve":3936,"Ġparts":3937,"Ġprey":3938,"THOMAS":3939,"Ġperil":3940,"Ġperish":3941,"Ġtrans":3942,"iteous":3943,"ĠFriar":3944,"Ġwhither":3945,"swain":3946,"Ġuntil":3947,"Ġaffect":3948,"Ġlean":3949,"Ġlegs":3950,"orses":3951,"Ġkeeps":3952,"Ġaccus":3953,"STANLEY":3954,"Ġprize":3955,"Ġpursu":3956,"Ġchair":3957,"Ġcountenance":3958,"Ġpleased":3959,"ounty":3960,"Ġhumbly":3961,"Ġcourtesy":3962,"Ġadvantage":3963,"Ġcurst":3964,"ploy":3965,"Ġspirits":3966,"Two":3967,"Ġintend":3968,"Ġdenied":3969,"ancy":3970,"Ġdisposition":3971,"Ġbetwixt":3972,"Ġsilver":3973,"Ġdelay":3974,"Ġresolve":3975,"ĠThursday":3976,"Ġwedding":3977,"Ġsighs":3978,"Ġhurt":3979,"BRAY":3980,"Ġcolour":3981,"Ġclear":3982,"Ġowe":3983,"Ġprepared":3984,"Ġdamned":3985,"Ġshadow":3986,"Ġpleasant":3987,"Ġforsworn":3988,"Ġstorm":3989,"Death":3990,"Ġthreaten":3991,"Ġconquer":3992,"Ġpunish":3993,"ĠCaius":3994,"Ġcontrary":3995,"EXETER":3996,"Ġpalace":3997,"Ġdinner":3998,"Ġneighbour":3999,"Ġmiserable":4000,"Ġspeci":4001,"Ġempty":4002,"ĠMusician":4003,"BUSHY":4004,"MOPSA":4005,"MAMILLIUS":4006,"iondello":4007,"Ġsanct":4008,"ĠMOWBRAY":4009,"olixenes":4010,"ABHORSON":4011,"CY":4012,"Cousin":4013,"Ed":4014,"Know":4015,"None":4016,"Nothing":4017,"Pre":4018,"Ret":4019,"Right":4020,"Rem":4021,"Rep":4022,"Sc":4023,"Sha":4024,"Widow":4025,"bow":4026,"born":4027,"grace":4028,"hor":4029,"hore":4030,"lar":4031,"mity":4032,"oc":4033,"oke":4034,"par":4035,"ping":4036,"pic":4037,"pass":4038,"tune":4039,"urious":4040,"we":4041,"wise":4042,"yond":4043,"ĠWhen":4044,"Ġtut":4045,"Ġtable":4046,"Ġscept":4047,"Ġmiss":4048,"Ġmurderer":4049,"Ġmaking":4050,"Ġmotion":4051,"Ġmourn":4052,"Ġwot":4053,"Ġwood":4054,"Ġwol":4055,"Ġwond":4056,"rease":4057,"Ġbas":4058,"Ġbare":4059,"Ġball":4060,"Ġbud":4061,"ising":4062,"Ġfle":4063,"Ġfro":4064,"Ġfee":4065,"Ġfashi":4066,"erve":4067,"Ġdi":4068,"Ġdign":4069,"Ġdies":4070,"Ġdag":4071,"Ġdaughters":4072,"Ġcens":4073,"Ġcup":4074,"Ġcalm":4075,"ency":4076,"Ġnaked":4077,"Ġyonder":4078,"Ġopinion":4079,"Ġpure":4080,"Ġport":4081,"Ġpainted":4082,"Ġpiteous":4083,"Ġheed":4084,"ote":4085,"ane":4086,"Ġgate":4087,"Ġbew":4088,"Ġbeloved":4089,"sequ":4090,"irg":4091,"Ġmend":4092,"ourish":4093,"Ġweigh":4094,"rib":4095,"Ġstory":4096,"Ġreward":4097,"urance":4098,"Ġdebt":4099,"Ġones":4100,"ARCH":4101,"amed":4102,"Ġseest":4103,"Three":4104,"ruly":4105,"thou":4106,"Ġfail":4107,"ERCY":4108,"que":4109,"Ġgoodness":4110,"Ġpronounce":4111,"Ġcomple":4112,"ĠMessenger":4113,"Ġamb":4114,"Ġamen":4115,"outs":4116,"oler":4117,"Ġhatred":4118,"Ġtheirs":4119,"ĠBiondello":4120,"Ġarg":4121,"igence":4122,"Ġquench":4123,"Ġhopes":4124,"cio":4125,"cian":4126,"Ġseeing":4127,"ĠPro":4128,"ĠPeter":4129,"ĠPisa":4130,"ĠPolixenes":4131,"ĠPERCY":4132,"umble":4133,"Ġplot":4134,"Ġdiss":4135,"Ġexpect":4136,"Ġslow":4137,"Ġado":4138,"THAS":4139,"ĠDid":4140,"Ġperfect":4141,"Ġperpet":4142,"Ġwrath":4143,"Thanks":4144,"lesome":4145,"ĠFl":4146,"Ġremains":4147,"Ġcrowns":4148,"Ġhark":4149,"Ġcourage":4150,"Ġwits":4151,"clock":4152,"Ġaccess":4153,"Ġaccuse":4154,"Ġfolly":4155,"Only":4156,"Ġends":4157,"Ġendure":4158,"Ġneedful":4159,"Still":4160,"Ġbodies":4161,"Ġjoys":4162,"Ġjoyful":4163,"Ġfortunes":4164,"Ġmistake":4165,"Ġnatural":4166,"Ġhappiness":4167,"Ġmisery":4168,"Ġundertake":4169,"Ġchide":4170,"Ġattempt":4171,"Ġadvance":4172,"Ġcurses":4173,"Ġemploy":4174,"Ġassurance":4175,"Ġpersu":4176,"Ġdiscontent":4177,"Ġsenators":4178,"Ġcrack":4179,"Ġintent":4180,"Ġsometime":4181,"Ġwounded":4182,"Ġspoken":4183,"Ġdrum":4184,"Ġmarket":4185,"cape":4186,"Ġwaters":4187,"Ġcursed":4188,"Ġinstruct":4189,"Ġinstrument":4190,"ĠNap":4191,"ĠRivers":4192,"Ġterror":4193,"Ġresolved":4194,"chance":4195,"Ġwhiles":4196,"Ġcorrupt":4197,"ney":4198,"Ġburthen":4199,"Ġgriev":4200,"Ġduked":4201,"Ġaccept":4202,"Ġgroan":4203,"BALTHAS":4204,"Ġcolours":4205,"Ġpenit":4206,"Ġprotest":4207,"Ġprinces":4208,"Ġprincess":4209,"ĠStanley":4210,"Ġgovernment":4211,"Prithee":4212,"Ġobedience":4213,"Ġpetition":4214,"Ġsolemn":4215,"Believe":4216,"Ġcontinue":4217,"Ġcredit":4218,"Ġseveral":4219,"hearted":4220,"Ġwreck":4221,"Ġlanguage":4222,"Ġcircum":4223,"Ġdurst":4224,"Ġremembrance":4225,"Ġpublic":4226,"Ġunnatural":4227,"picion":4228,"Ġdukedom":4229,"BALTHASAR":4230,"?--":4231,"Ar":4232,"App":4233,"AEd":4234,"Bear":4235,"Boat":4236,"Father":4237,"FOL":4238,"Heaven":4239,"Love":4240,"Might":4241,"Mark":4242,"OS":4243,"Post":4244,"Page":4245,"Save":4246,"afe":4247,"bear":4248,"do":4249,"dds":4250,"ex":4251,"fer":4252,"gers":4253,"how":4254,"ipe":4255,"just":4256,"lic":4257,"oe":4258,"oved":4259,"ped":4260,"pro":4261,"sc":4262,"same":4263,"time":4264,"uary":4265,"val":4266,"vours":4267,"yr":4268,"ĠNay":4269,"ĠThey":4270,"Ġtest":4271,"Ġteeth":4272,"hest":4273,"Ġsink":4274,"Ġsins":4275,"Ġmag":4276,"Ġmile":4277,"ination":4278,"happy":4279,"ishop":4280,"Ġfame":4281,"erd":4282,"ita":4283,"Ġcock":4284,"Ġcease":4285,"ences":4286,"Ġnought":4287,"Ġled":4288,"aries":4289,"Ġhost":4290,"Ġhunt":4291,"Ġhouses":4292,"Ġhorses":4293,"Ġodd":4294,"Ġobs":4295,"Ġodds":4296,"Ġtomb":4297,"Ġpol":4298,"Ġpowers":4299,"strous":4300,"omp":4301,"omen":4302,"atic":4303,"atience":4304,"Ġbeyond":4305,"Ġhaz":4306,"uted":4307,"Ġmere":4308,"Ġisle":4309,"Ġisland":4310,"ourage":4311,"Ġeast":4312,"Ġits":4313,"Ġkin":4314,"idence":4315,"Ġrepe":4316,"Ġrealm":4317,"Ġshape":4318,"uses":4319,"ified":4320,"Ġseize":4321,"Those":4322,"Ġspite":4323,"Ġfaces":4324,"ĠCan":4325,"ĠCal":4326,"ĠROS":4327,"Ġvault":4328,"Ġvirg":4329,"Ġshun":4330,"ants":4331,"Ġcomest":4332,"Ġmanners":4333,"ĠEl":4334,"icular":4335,"Ġconc":4336,"ieved":4337,"Ġblock":4338,"Ġblush":4339,"ĠGood":4340,"ared":4341,"arent":4342,"olute":4343,"Ġhereafter":4344,"Ġswallow":4345,"Ġbrings":4346,"ĠSo":4347,"ĠBl":4348,"elt":4349,"Ġqual":4350,"Ġjour":4351,"Young":4352,"akest":4353,"ument":4354,"Ġfathers":4355,"ĠWho":4356,"Ġenmity":4357,"Ġring":4358,"CAS":4359,"ĠYet":4360,"Ġalter":4361,"Ġlooking":4362,"Ġfriendly":4363,"Ġslay":4364,"Ġflies":4365,"ĠTake":4366,"Ġfairly":4367,"tled":4368,"Ġadvers":4369,"Ġclo":4370,"Ġwrite":4371,"Ġtrade":4372,"Ġways":4373,"Ġscope":4374,"Ġscene":4375,"aintain":4376,"they":4377,"Ġkey":4378,"ĠFrench":4379,"Ġapprehe":4380,"Ġcontract":4381,"Ġwhore":4382,"Ġarmour":4383,"ctions":4384,"Ġuntimely":4385,"ression":4386,"Ġimm":4387,"Ġrepair":4388,"Ġrule":4389,"Ġleads":4390,"Ġslept":4391,"Ġaccord":4392,"Ġpurcha":4393,"Ġcompass":4394,"orset":4395,"Ġseeming":4396,"Ġbrain":4397,"Ġglorious":4398,"Ġimposs":4399,"Ġpassage":4400,"Ġmaiden":4401,"Ġhateful":4402,"Ġstrew":4403,"Ġturns":4404,"uteous":4405,"Ġinstant":4406,"Ġboar":4407,"Ġwants":4408,"NORFOL":4409,"Ġdiscover":4410,"Ġcommanded":4411,"Ġhanging":4412,"Ġcontented":4413,"Ġdares":4414,"Ġfreely":4415,"Ġgrey":4416,"Ġservices":4417,"Ġtemper":4418,"Ġdrums":4419,"Ġcholer":4420,"Ġgrows":4421,"Ġdeserves":4422,"noon":4423,"ĠLucio":4424,"Ġgranted":4425,"Comm":4426,"Ġterms":4427,"Ġincrease":4428,"Ġresolution":4429,"Ġshortly":4430,"Ġvex":4431,"Ġpraise":4432,"Ġabsent":4433,"Ġvenom":4434,"Ġdrops":4435,"Ġprivile":4436,"Ġrespected":4437,"Ġframe":4438,"Beseech":4439,"Ġapproach":4440,"Ġcomplain":4441,"Ġtorment":4442,"Ġunknown":4443,"Ġprosperous":4444,"DORCAS":4445,"Ġsuspicion":4446,"Ġreverend":4447,"Ġapparel":4448,"Ġcaptain":4449,"Ġdegree":4450,"ĠHermione":4451,"Ġsmooth":4452,"Ġlarge":4453,"Ġsharp":4454,"Ġearnest":4455,"Ġcamest":4456,"Ġdisdain":4457,"Ġexcellent":4458,"Ġsceptre":4459,"Ġdagger":4460,"ĠNaples":4461,"Boatswain":4462,"ĠROSS":4463,"NORFOLK":4464,"Amen":4465,"Boy":4466,"Came":4467,"Cons":4468,"DIN":4469,"Dear":4470,"FER":4471,"GH":4472,"Ghost":4473,"Has":4474,"Long":4475,"Mistress":4476,"NS":4477,"Please":4478,"RR":4479,"Roman":4480,"Set":4481,"Wilt":4482,"Worthy":4483,"aces":4484,"aily":4485,"bri":4486,"bra":4487,"dis":4488,"fret":4489,"gl":4490,"gar":4491,"iven":4492,"iate":4493,"ipp":4494,"kin":4495,"ker":4496,"law":4497,"pul":4498,"uce":4499,"wife":4500,"ĠTherefore":4501,"Ġtame":4502,"Ġtaught":4503,"Ġtap":4504,"Ġtide":4505,"Ġable":4506,"Ġsqu":4507,"Ġsouth":4508,"Ġmor":4509,"Ġmill":4510,"Ġmessenger":4511,"iny":4512,"reg":4513,"reland":4514,"reme":4515,"Ġbird":4516,"Ġbury":4517,"isper":4518,"Ġfig":4519,"Ġfurn":4520,"itus":4521,"Ġdig":4522,"Ġdress":4523,"Ġdaily":4524,"Ġchat":4525,"Ġcatch":4526,"Ġlark":4527,"Ġthorn":4528,"Ġthief":4529,"Ġparent":4530,"ĠIreland":4531,"ances":4532,"omans":4533,"ater":4534,"ature":4535,"atcl":4536,"Ġbef":4537,"Ġbeard":4538,"Ġbethink":4539,"Ġmeant":4540,"Ġweather":4541,"Ġwept":4542,"ades":4543,"ricians":4544,"Ġstol":4545,"Ġstamp":4546,"Ġrej":4547,"Ġrecom":4548,"Ġrevol":4549,"Ġlion":4550,"aline":4551,"Ġwilling":4552,"Ġwillingly":4553,"Ġnobl":4554,"Ġnobly":4555,"andal":4556,"Ġseason":4557,"Ġsull":4558,"Ġsuck":4559,"Ġspr":4560,"Ġspur":4561,"ĠCo":4562,"ĠCons":4563,"Ġknife":4564,"ĠRos":4565,"ĠRomans":4566,"Ġvows":4567,"Ġcomb":4568,"ĠMay":4569,"ĠMil":4570,"Ġamazed":4571,"Ġconce":4572,"Ġconceit":4573,"Ġconstant":4574,"ember":4575,"Help":4576,"Ġlovely":4577,"Ġswell":4578,"ĠST":4579,"ĠBe":4580,"ĠBer":4581,"Ġunless":4582,"Ġworn":4583,"Ġworthi":4584,"Ġjew":4585,"Ġmuster":4586,"Ġprovo":4587,"ĠPray":4588,"Ġruth":4589,"ĠAd":4590,"ĠApollo":4591,"Ġdisper":4592,"Ġabhor":4593,"Ġroar":4594,"Ġrogue":4595,"Ġtells":4596,"Ġwhereof":4597,"Ġwarlike":4598,"Ġhasty":4599,"Ġfears":4600,"Ġgreatest":4601,"oldier":4602,"Ġparticular":4603,"Ġadver":4604,"Ġcommitted":4605,"Ġclam":4606,"ĠDo":4607,"Ġperj":4608,"Ġperforce":4609,"Ġwrought":4610,"liament":4611,"Ġnorth":4612,"Ġpress":4613,"Ġrap":4614,"Ġraise":4615,"ĠFarewell":4616,"Ġbegun":4617,"forth":4618,"ĠJack":4619,"Ġconsider":4620,"Ġpeers":4621,"love":4622,"Ġwitch":4623,"Ġaccused":4624,"Ġkindly":4625,"Ġcompan":4626,"Ġsmiles":4627,"Ġcounty":4628,"Ġfinds":4629,"Stri":4630,"Ġbraw":4631,"Ġcharged":4632,"Ġpassion":4633,"Clarence":4634,"Ġholds":4635,"GREEN":4636,"Ġstreets":4637,"Ġbuild":4638,"Ġsoundly":4639,"Ġserves":4640,"Ġboots":4641,"Ġadvice":4642,"Ġcurrent":4643,"Ġrevenged":4644,"Ġassured":4645,"Ġsends":4646,"Ġgiving":4647,"Ġwinds":4648,"Ġhanged":4649,"Ġdarest":4650,"Ġintell":4651,"Ġsupposed":4652,"Ġafford":4653,"ALONS":4654,"Whither":4655,"Ġhardly":4656,"Ġprofit":4657,"Ġparliament":4658,"Ġrecord":4659,"Ġveins":4660,"Ġwaste":4661,"Ġstopp":4662,"Until":4663,"Ġpieces":4664,"Ġwait":4665,"Ġgarland":4666,"Ġgrieve":4667,"Ġsky":4668,"Ġforbear":4669,"ĠPomfret":4670,"Ġdirect":4671,"Ġgroans":4672,"Ġthrice":4673,"Ġestate":4674,"erns":4675,"TYRR":4676,"Ġoppos":4677,"Ġdestroy":4678,"About":4679,"Ġurged":4680,"Ġaffections":4681,"Ġfamous":4682,"Ġhaply":4683,"DORSET":4684,"Supp":4685,"Ġlusty":4686,"Ġelder":4687,"Ġstudy":4688,"Ġcounterfeit":4689,"Gentlemen":4690,"Ġarrived":4691,"Ġbehalf":4692,"ĠMarshal":4693,"Ġavoid":4694,"Ġimprisonment":4695,"untsman":4696,"Ġrascal":4697,"Ġtreacherous":4698,"Ġconduct":4699,"Ġprotector":4700,"Ġspecial":4701,"Ġsanctuary":4702,"Ġperpetual":4703,"Ġgrievous":4704,"AEdile":4705,"Ġvirgin":4706,"Ġjourney":4707,"DINAND":4708,"FERDINAND":4709,"atcliff":4710,"ĠConspir":4711,"ALONSO":4712,"TYRREL":4713,";--":4714,"Acc":4715,"Bring":4716,"Coriol":4717,"Keep":4718,"Leave":4719,"Makes":4720,"Vols":4721,"af":4722,"cure":4723,"des":4724,"dig":4725,"eat":4726,"erer":4727,"fess":4728,"fellow":4729,"faced":4730,"grim":4731,"groom":4732,"ib":4733,"iving":4734,"ienn":4735,"lanch":4736,"master":4737,"mory":4738,"maid":4739,"nal":4740,"sha":4741,"ser":4742,"some":4743,"ties":4744,"upt":4745,"vior":4746,"wear":4747,"xeter":4748,"zz":4749,"Ġz":4750,"Ġing":4751,"ĠThen":4752,"Ġtask":4753,"Ġach":4754,"Ġapt":4755,"Ġaunt":4756,"Ġsy":4757,"Ġsal":4758,"Ġsire":4759,"Ġmult":4760,"Ġmaintain":4761,"Ġwing":4762,"Ġwide":4763,"Ġwhip":4764,"Ġwaking":4765,"reen":4766,"Ġbade":4767,"isbury":4768,"Ġfi":4769,"Ġfood":4770,"Ġfrow":4771,"Ġfun":4772,"Ġfeet":4773,"Ġfires":4774,"Ġfancy":4775,"erity":4776,"erby":4777,"itation":4778,"onci":4779,"Ġdow":4780,"Ġdim":4781,"Ġdri":4782,"Ġdying":4783,"Ġcher":4784,"Ġcaught":4785,"Ġcere":4786,"esar":4787,"essel":4788,"enant":4789,"Ġnail":4790,"Ġlin":4791,"Ġyond":4792,"Ġyoke":4793,"Ġthird":4794,"Ġhor":4795,"Ġhie":4796,"Ġpi":4797,"Ġpot":4798,"Ġpound":4799,"Ġpurse":4800,"Ġpier":4801,"vet":4802,"ative":4803,"sell":4804,"Ġinqu":4805,"etite":4806,"eder":4807,"utenant":4808,"Ġmelt":4809,"Ġmelanch":4810,"Ġfors":4811,"Ġforced":4812,"Ġforfeit":4813,"ourse":4814,"ourth":4815,"Ġevent":4816,"adv":4817,"aded":4818,"rick":4819,"Ġsting":4820,"Ġstro":4821,"Ġstout":4822,"Ġstret":4823,"Ġstroke":4824,"Ġreck":4825,"rac":4826,"ales":4827,"alisbury":4828,"Ġsore":4829,"Ġsooth":4830,"Ġdeceit":4831,"roll":4832,"ested":4833,"earer":4834,"amb":4835,"ams":4836,"aming":4837,"Ġsees":4838,"Ġalliance":4839,"Ġsue":4840,"ruction":4841,"ellion":4842,"Ġsple":4843,"ilence":4844,"Ġknaves":4845,"Ġvessel":4846,"ulate":4847,"arts":4848,"nty":4849,"ĠExeter":4850,"icy":4851,"Ġconfe":4852,"Ġblunt":4853,"ĠGive":4854,"ares":4855,"ĠLe":4856,"Ġsaying":4857,"ĠSoldier":4858,"Ġunjust":4859,"Ġunhappy":4860,"ignty":4861,"LIS":4862,"Ġgraves":4863,"ĠWell":4864,"Ġenforce":4865,"deem":4866,"ĠAll":4867,"ĠAway":4868,"irect":4869,"harge":4870,"Ġoffended":4871,"Ġdissem":4872,"Ġdisgrace":4873,"Ġalack":4874,"Ġalike":4875,"Ġalthough":4876,"Ġabide":4877,"Ġaboard":4878,"Noble":4879,"Ġrose":4880,"Ġexchange":4881,"Soft":4882,"ages":4883,"Ġdesires":4884,"Ġdescend":4885,"Ġslaves":4886,"Ġflood":4887,"Ġflatt":4888,"Ġtwain":4889,"ĠTitus":4890,"Ġbetray":4891,"Ġbetimes":4892,"Ġnewly":4893,"Ġparting":4894,"Ġpartly":4895,"Ġcalled":4896,"Ġcommons":4897,"Ġcommission":4898,"Ġstanding":4899,"Ġclim":4900,"ĠDe":4901,"ĠDorset":4902,"ĠDerby":4903,"ullus":4904,"Ġwrink":4905,"Ġbearing":4906,"aints":4907,"Ġrare":4908,"thee":4909,"ĠFroth":4910,"Ġappeal":4911,"Ġappetite":4912,"Ġcontempt":4913,"Ġwhisper":4914,"Ġimage":4915,"ĠMarian":4916,"forced":4917,"Ġrust":4918,"Ġruled":4919,"Ġhousehold":4920,"Ġrestra":4921,"ercy":4922,"Ġsets":4923,"clam":4924,"osing":4925,"Ġresist":4926,"Ġtrick":4927,"Ġputs":4928,"Ġpowerful":4929,"Ġchase":4930,"Ġcharac":4931,"Ġsmell":4932,"Ġtreasure":4933,"Ġbrace":4934,"iety":4935,"Ġmistrust":4936,"Ġnative":4937,"Ġboys":4938,"Ġweeps":4939,"Ġpatricians":4940,"Ġbelow":4941,"Lords":4942,"Ġfalsehood":4943,"Ġsovereignty":4944,"ouchs":4945,"Ġassure":4946,"Ġsecure":4947,"Twere":4948,"Ġsometimes":4949,"Ġoaths":4950,"Ġmerit":4951,"upon":4952,"Ġfaithful":4953,"Ġdefence":4954,"Ġaffli":4955,"Ġsurely":4956,"should":4957,"Ġsilent":4958,"Ġinstruments":4959,"Cannot":4960,"Ġbeholding":4961,"Ġreconci":4962,"Ġago":4963,"Ġagree":4964,"Ġcorre":4965,"Ġsingle":4966,"Ġbreathed":4967,"Ġforgive":4968,"Ġweakness":4969,"Ġprett":4970,"Ġsickness":4971,"Ġregal":4972,"Ġregard":4973,"Ġmouths":4974,"Ġbooks":4975,"Ġbarren":4976,"Ġbeasts":4977,"Ġtrumpet":4978,"eeming":4979,"Ġpitch":4980,"Ġshield":4981,"Ġunkind":4982,"Ġtempest":4983,"Ġsuspect":4984,"Ġobedient":4985,"Ġreverence":4986,"Ġapparent":4987,"Ġentertainment":4988,"ĠAnti":4989,"Ġdetermined":4990,"Ġhelm":4991,"Ġgently":4992,"Ġholp":4993,"Ġfairest":4994,"Ġtremble":4995,"shire":4996,"Ġstabb":4997,"Ġtyranny":4998,"Ġlength":4999,"Ġpilgrim":5000,"ĠSicilia":5001,"Ġequal":5002,"Ġfashion":5003,"Ġdignity":5004,"Ġcomplex":5005,"Ġcircumst":5006,"yrrel":5007,"Ġaccording":5008,"Ġimpossible":5009,"Ġrejo":5010,"ĠRosaline":5011,"ĠMayor":5012,"ĠMilan":5013,"Volsce":5014,"ienna":5015,"Ġfroward":5016,"Ġmelancholy":5017,"Ġconference":5018,".--":5019,"AD":5020,"Cry":5021,"Cond":5022,"CLE":5023,"Down":5024,"Draw":5025,"Each":5026,"Fl":5027,"FRO":5028,"Fair":5029,"Hail":5030,"IL":5031,"IT":5032,"Im":5033,"Kn":5034,"King":5035,"Lay":5036,"Lie":5037,"Lady":5038,"Many":5039,"OMEN":5040,"PH":5041,"Qu":5042,"Ri":5043,"Sm":5044,"Son":5045,"Somet":5046,"Tush":5047,"UGH":5048,"Warwick":5049,"Ye":5050,"acc":5051,"action":5052,"bod":5053,"bation":5054,"cra":5055,"cary":5056,"cceed":5057,"eb":5058,"eve":5059,"fa":5060,"fold":5061,"foot":5062,"give":5063,"iver":5064,"iam":5065,"kind":5066,"long":5067,"look":5068,"mong":5069,"ns":5070,"nes":5071,"new":5072,"rs":5073,"rat":5074,"rough":5075,"say":5076,"sues":5077,"than":5078,"tic":5079,"teen":5080,"tles":5081,"uries":5082,"war":5083,"weal":5084,"xe":5085,"Ġtim":5086,"Ġtres":5087,"Ġtall":5088,"Ġtakes":5089,"Ġtarry":5090,"Ġtaunt":5091,"here":5092,"Ġaxe":5093,"oubt":5094,"Ġsalt":5095,"Ġsnow":5096,"Ġmir":5097,"Ġmood":5098,"Ġmess":5099,"Ġmirth":5100,"inct":5101,"Ġwid":5102,"Ġwest":5103,"Ġwake":5104,"Ġwink":5105,"hand":5106,"Ġbir":5107,"Ġbuck":5108,"ories":5109,"ering":5110,"erves":5111,"iter":5112,"itable":5113,"onation":5114,"Ġdiffe":5115,"Ġcost":5116,"Ġchall":5117,"Ġciv":5118,"Ġnap":5119,"Ġlent":5120,"Ġline":5121,"Ġlap":5122,"Ġyes":5123,"Ġthir":5124,"Ġthick":5125,"Ġthread":5126,"Ġhorn":5127,"Ġoak":5128,"Ġope":5129,"Ġtoad":5130,"Ġtoil":5131,"Ġtooth":5132,"Ġpee":5133,"Ġpause":5134,"ĠIta":5135,"othes":5136,"stable":5137,"stery":5138,"aning":5139,"omach":5140,"Ġgru":5141,"Ġgaze":5142,"Ġmystery":5143,"Ġinfection":5144,"Ġmemory":5145,"imble":5146,"illy":5147,"illing":5148,"herit":5149,"Ġste":5150,"Ġstick":5151,"Ġstumble":5152,"asp":5153,"ases":5154,"Ġrece":5155,"Ġreap":5156,"Ġredeem":5157,"Ġlift":5158,"Ġliken":5159,"alse":5160,"Ġdeb":5161,"Ġdeck":5162,"Ġdecl":5163,"Ġsham":5164,"ushy":5165,"ushes":5166,"Ġsell":5167,"Ġseiz":5168,"Ġseldom":5169,"Ġsepul":5170,"Through":5171,"Ġsuper":5172,"Ġsuitor":5173,"Ġsucceed":5174,"thing":5175,"Ġlover":5176,"Ġlovest":5177,"Ġspl":5178,"Ġspy":5179,"Ġfact":5180,"Ġfawn":5181,"Ġnegle":5182,"Ġknot":5183,"Ġvar":5184,"Ġvill":5185,"Ġvol":5186,"Ġshri":5187,"ulf":5188,"seless":5189,"artius":5190,"Ġmanif":5191,"Ġmanage":5192,"ĠMin":5193,"ical":5194,"icles":5195,"ĠLau":5196,"ĠLartius":5197,"Ġhated":5198,"LOUGH":5199,"ersu":5200,"Ġswain":5201,"Ġbran":5202,"pping":5203,"ĠSalisbury":5204,"Ġunwill":5205,"ĠHis":5206,"ĠHeaven":5207,"ĠVen":5208,"ĠVienna":5209,"Whether":5210,"Ġjot":5211,"cies":5212,"Ġshoulder":5213,"ĠPerd":5214,"ĠWIL":5215,"Ġdeaths":5216,"Ġheartily":5217,"Ġwholesome":5218,"Ġmarks":5219,"Ġoffic":5220,"Ġdisple":5221,"Ġdisgu":5222,"Ġabused":5223,"Ġexerc":5224,"Ġdescent":5225,"Ġripe":5226,"Ġride":5227,"ased":5228,"Ġleague":5229,"Ġslip":5230,"Ġwarri":5231,"ĠTar":5232,"ĠTell":5233,"ĠTyrrel":5234,"Ġbred":5235,"Ġheavenly":5236,"Ġclothes":5237,"Ġsweeter":5238,"Ġperhaps":5239,"Ġscold":5240,"Ġscandal":5241,"Ġrain":5242,"Ġrail":5243,"Ġraised":5244,"Ġappointed":5245,"Ġwhit":5246,"Ġremorse":5247,"Ġremove":5248,"Ġremoved":5249,"ĠLords":5250,"Ġbegan":5251,"Ġrepose":5252,"Ġharsh":5253,"Ġkeeper":5254,"Ġaccident":5255,"Ġaccursed":5256,"Ġyounger":5257,"Ġyoungest":5258,"Ġprick":5259,"Ġdearly":5260,"Ġsubtle":5261,"RIAN":5262,"Ġrights":5263,"fortune":5264,"Ġminds":5265,"Ġcoff":5266,"Ġdevotion":5267,"Ġmischance":5268,"Ġmeeting":5269,"Ġafternoon":5270,"Ġcareless":5271,"Uncle":5272,"Ġgriefs":5273,"Anon":5274,"Ġhuman":5275,"Ġcounc":5276,"Ġgrat":5277,"Ġretire":5278,"Ġserved":5279,"Ġadventure":5280,"Ġcurt":5281,"Ġcountrymen":5282,"Ġvirtues":5283,"Ġwindows":5284,"itten":5285,"Ġcraves":5286,"Ġcraft":5287,"Ġbeauteous":5288,"Ġstranger":5289,"Ġyielded":5290,"Ġsupply":5291,"Ġcommonweal":5292,"Ġmonstrous":5293,"Ġmonument":5294,"Didst":5295,"soever":5296,"Ġgrowing":5297,"Ġheirs":5298,"Ġvisage":5299,"Ġpoints":5300,"Ġstronger":5301,"Ġtrusty":5302,"Ġinstruction":5303,"Ġinfant":5304,"Ġforeign":5305,"Ġincen":5306,"Ġfeeling":5307,"Ġburst":5308,"Ġplainly":5309,"Ġabsolute":5310,"Ġfourteen":5311,"Ġselfsame":5312,"Ġfrowns":5313,"Ġdirection":5314,"Ġredress":5315,"Ġsatisfy":5316,"Ġservants":5317,"ollow":5318,"Ġblem":5319,"Ġbridegroom":5320,"Ġbabes":5321,"Ġgallant":5322,"Ġrebellion":5323,"Ġwriting":5324,"Ġfierce":5325,"Ġshadows":5326,"Ġpleasing":5327,"Ġmodest":5328,"Ġmodesty":5329,"Ġobject":5330,"Ġforswear":5331,"Ġuncles":5332,"Ġrefuse":5333,"Among":5334,"banished":5335,"Ġbigger":5336,"Ġfeather":5337,"Ġdetermine":5338,"Betw":5339,"Better":5340,"Ġchaste":5341,"otted":5342,"Ġfairer":5343,"Ġshrewd":5344,"Ġdismal":5345,"Ġtrembling":5346,"Ġacquaint":5347,"Ġprophet":5348,"Ġedge":5349,"Ġeagle":5350,"Ġshroud":5351,"Ġsubstit":5352,"othecary":5353,"Ġsteeds":5354,"Ġiron":5355,"Ġtorture":5356,"Ġrenowned":5357,"Ġdearest":5358,"Return":5359,"Remember":5360,"Ġwondrous":5361,"Ġballad":5362,"Ġpenitent":5363,"Ġpolicy":5364,"Ġrepeal":5365,"Ġadversaries":5366,"Ġpurchase":5367,"Commend":5368,"Ġprivilege":5369,"Ġrevolt":5370,"Ġsullen":5371,"Ġconceal":5372,"ĠConspirator":5373,"Coriolanus":5374,"Ġdowry":5375,"Ġpierce":5376,"Ġstrokes":5377,"Ġflatterer":5378,"ĠMariana":5379,"ouchsafe":5380,"ADRIAN":5381,"CLEOMEN":5382,"FROTH":5383,"Ġtrespass":5384,"Ġcivil":5385,"Ġthirty":5386,"ĠItaly":5387,"Ġsepulch":5388,"LOUGHBY":5389,"ĠPerdita":5390,"ĠWILLOUGHBY":5391,"Ġexercise":5392,"CLEOMENES":5393,"AM":5394,"Aw":5395,"BAR":5396,"Courage":5397,"Dare":5398,"Find":5399,"Get":5400,"Men":5401,"Mist":5402,"Making":5403,"Methought":5404,"NARD":5405,"Oh":5406,"Pur":5407,"Petruchio":5408,"Que":5409,"Rather":5410,"RUT":5411,"Se":5412,"Sound":5413,"Tranio":5414,"UR":5415,"Villain":5416,"Wit":5417,"ax":5418,"br":5419,"bble":5420,"boy":5421,"car":5422,"cest":5423,"cue":5424,"cence":5425,"done":5426,"ders":5427,"duke":5428,"ext":5429,"from":5430,"gy":5431,"got":5432,"ghan":5433,"great":5434,"gentle":5435,"iar":5436,"ips":5437,"mas":5438,"made":5439,"nken":5440,"nicious":5441,"oon":5442,"oes":5443,"off":5444,"phy":5445,"pret":5446,"pardon":5447,"rity":5448,"ratch":5449,"sire":5450,"scal":5451,"tend":5452,"ug":5453,"vive":5454,"vied":5455,"ĠAs":5456,"Ġtou":5457,"Ġtro":5458,"Ġtig":5459,"Ġtail":5460,"Ġale":5461,"Ġages":5462,"Ġsn":5463,"Ġmain":5464,"Ġmil":5465,"Ġmethought":5466,"inate":5467,"Ġward":5468,"Ġwakes":5469,"Ġbon":5470,"Ġbore":5471,"Ġbag":5472,"Ġbrown":5473,"Ġborrow":5474,"Ġbott":5475,"ision":5476,"orough":5477,"Ġfish":5478,"Ġfret":5479,"Ġfix":5480,"Ġfreed":5481,"ital":5482,"itiff":5483,"onest":5484,"Ġdate":5485,"Ġdower":5486,"Ġcrow":5487,"esu":5488,"enge":5489,"Ġnet":5490,"Ġnest":5491,"Ġnice":5492,"Ġnumb":5493,"Ġnupt":5494,"Ġlur":5495,"Ġlance":5496,"Ġlower":5497,"Ġluck":5498,"Ġyon":5499,"Ġthin":5500,"Ġthie":5501,"Ġthirst":5502,"Ġthumb":5503,"Ġhom":5504,"Ġhind":5505,"Ġhig":5506,"Ġhire":5507,"Ġhoney":5508,"Ġtoy":5509,"Ġtomorrow":5510,"Ġped":5511,"Ġpear":5512,"Ġpath":5513,"Ġpage":5514,"hath":5515,"ĠIt":5516,"Ġheat":5517,"Ġheels":5518,"owl":5519,"ingers":5520,"Ġgid":5521,"atri":5522,"atest":5523,"Ġbere":5524,"Ġbefall":5525,"sey":5526,"Ġink":5527,"cels":5528,"Ġhare":5529,"Ġhaught":5530,"Ġhabit":5531,"ayed":5532,"Ġnoted":5533,"chief":5534,"keley":5535,"Ġweal":5536,"Ġwealth":5537,"oops":5538,"hern":5539,"Ġwithdraw":5540,"rif":5541,"rich":5542,"rible":5543,"Ġstale":5544,"Ġstern":5545,"Ġstomach":5546,"order":5547,"INE":5548,"rage":5549,"Ġlivery":5550,"Ġliking":5551,"urg":5552,"urrey":5553,"Ġdeaf":5554,"Ġshare":5555,"Ġshapes":5556,"Ġdove":5557,"Ġdogs":5558,"Ġdozen":5559,"Ġwills":5560,"ushing":5561,"Ġsuits":5562,"Ġhers":5563,"Ġanointed":5564,"ardel":5565,"Ġspit":5566,"Ġspect":5567,"Ġshallow":5568,"ĠCounty":5569,"Ġneat":5570,"Ġvent":5571,"Ġshook":5572,"Ġshines":5573,"Ġupright":5574,"Ġgoods":5575,"Ġprime":5576,"Ġamiss":5577,"icate":5578,"icio":5579,"Ġconceive":5580,"iege":5581,"Ġblast":5582,"ĠGree":5583,"emper":5584,"Ġgodd":5585,"aughan":5586,"Ġsirs":5587,"ola":5588,"olved":5589,"ĠLicio":5590,"Ġthereby":5591,"ept":5592,"eping":5593,"Ġswore":5594,"Ġsweat":5595,"Ġorn":5596,"ĠSc":5597,"ĠSp":5598,"ĠSee":5599,"ĠShore":5600,"ĠOff":5601,"ĠBr":5602,"ĠBy":5603,"Ġarrest":5604,"Ġlets":5605,"Ġunst":5606,"Ġunse":5607,"Ġunfe":5608,"Ġworm":5609,"ĠVal":5610,"aker":5611,"Ġhop":5612,"Ġlikely":5613,"Ġproclam":5614,"ĠPlease":5615,"ĠPETER":5616,"Ġsav":5617,"Ġmadness":5618,"umbling":5619,"Ġplaces":5620,"iced":5621,"ĠWilt":5622,"Ġeng":5623,"unate":5624,"Ġrans":5625,"Ġtrunk":5626,"Ġsomewhat":5627,"harged":5628,"orney":5629,"Ġoffices":5630,"Ġdisgra":5631,"Ġalms":5632,"Ġabuse":5633,"Ġexam":5634,"Ġtelling":5635,"Ġlooked":5636,"Ġthinking":5637,"Ġwhereon":5638,"agues":5639,"Whereto":5640,"Ġflow":5641,"Ġflint":5642,"Ġflourish":5643,"Ġfearing":5644,"bert":5645,"Ġbreed":5646,"Ġgreatness":5647,"Ġparted":5648,"Ġpernicious":5649,"Ġtroop":5650,"Ġtroops":5651,"lied":5652,"Ġscatter":5653,"ainty":5654,"ables":5655,"ĠFare":5656,"Ġappea":5657,"Ġgraced":5658,"Ġbegu":5659,"Ġbeget":5660,"rank":5661,"Ġchildish":5662,"Ġreply":5663,"Ġconsort":5664,"loves":5665,"ercing":5666,"cheth":5667,"Ġtrif":5668,"ontes":5669,"Ġprice":5670,"Ġsubd":5671,"Ġbacks":5672,"twill":5673,"Ġforthwith":5674,"Ġbank":5675,"Ġcheap":5676,"Ġcharm":5677,"Ġlaws":5678,"Ġconfirm":5679,"Ġcoll":5680,"Ġlightning":5681,"Does":5682,"Ġroyalty":5683,"ĠAnne":5684,"Ġbesides":5685,"Ġhappily":5686,"Ġsorrows":5687,"Ġcareful":5688,"Ġlesser":5689,"Ġstrive":5690,"Ġsleeping":5691,"Ġdrag":5692,"Ġserp":5693,"Ġboast":5694,"pense":5695,"Ġwanting":5696,"Ġbreathing":5697,"Ġdiscourse":5698,"Ġsenseless":5699,"Ġbeaut":5700,"Ġhangs":5701,"Ġdepend":5702,"hamed":5703,"Ġgrew":5704,"Ġspoil":5705,"Ġdrunken":5706,"Ġaffords":5707,"Ġmetal":5708,"Ġsooner":5709,"IDAM":5710,"Ġsights":5711,"Ġmonster":5712,"Ġmonarch":5713,"acles":5714,"Ġsadness":5715,"Ġsuffic":5716,"Ġcarried":5717,"Ġexecute":5718,"Ġexecuted":5719,"Ġminute":5720,"Ġvel":5721,"Ġcoronation":5722,"Ġpraises":5723,"Ġwaves":5724,"Ġburnt":5725,"Ġliberal":5726,"Ġburns":5727,"Ġburning":5728,"Ġproport":5729,"Ġblessing":5730,"Ġbleeding":5731,"Ġestim":5732,"Ġbitterly":5733,"mbles":5734,"speak":5735,"Ġlimit":5736,"Ġlimbs":5737,"Ġsacrif":5738,"Ġsuccession":5739,"Ġactions":5740,"Ġcaps":5741,"Ġviolence":5742,"Ġtriumphant":5743,"Ġmidnight":5744,"Ġrebels":5745,"Ġpossession":5746,"Play":5747,"Ġtorch":5748,"Ġcaitiff":5749,"Ġpitiful":5750,"Ġinjury":5751,"Ġurge":5752,"Ġexecutioner":5753,"March":5754,"Marcius":5755,"Ġmeddle":5756,"Ġoccup":5757,"Ġnobility":5758,"Ġchurchyard":5759,"Ġignorance":5760,"Ġsaints":5761,"headed":5762,"ĠCaesar":5763,"Ġrank":5764,"Ġguests":5765,"ĠWilliam":5766,"Ġhungry":5767,"Ġunfold":5768,"Ġmonths":5769,"Ġextremity":5770,"Ġinclined":5771,"Ġcovert":5772,"Ġjoints":5773,"Ġprevented":5774,"Ġtyrann":5775,"Ġlengthen":5776,"Ġwager":5777,"Ġnecessity":5778,"Ġsubstance":5779,"Ġescape":5780,"Ġsenses":5781,"Ġstatue":5782,"Ġconjure":5783,"Ġbands":5784,"Ġweapon":5785,"Ġsteps":5786,"Ġangel":5787,"Ġtransport":5788,"Ġthreatening":5789,"Ġwolf":5790,"Ġcensure":5791,"ribunes":5792,"ARCHIDAM":5793,"ĠDido":5794,"ĠElbow":5795,"Ġapprehend":5796,"Ġimmortal":5797,"Ġtapster":5798,"Ġmoral":5799,"ĠBerkeley":5800,"Ġjewel":5801,"Ġruthless":5802,"Ġdispersed":5803,"Ġclamour":5804,"Ġrapier":5805,"Ġcompanion":5806,"Strike":5807,"Ġopposite":5808,"Ġzeal":5809,"Ġcherish":5810,"Ġstretch":5811,"ambio":5812,"Ġspleen":5813,"Ġcharacter":5814,"Ġprettiest":5815,"Ġrejoice":5816,"Ġbirds":5817,"Ġchallenge":5818,"Ġpeevish":5819,"Ġlikeness":5820,"ĠLaurence":5821,"Ġofficers":5822,"Ġwarriors":5823,"Ġcommonwealth":5824,"Ġsepulchre":5825,"BARNARD":5826,"Queen":5827,"RUTLAND":5828,"scalus":5829,"Ġbottom":5830,"Ġnuptial":5831,"Ġgiddy":5832,"ĠOfficer":5833,"ĠWiltshire":5834,"ARCHIDAMUS":5835,"BARNARDINE":5836,"ATER":5837,"Add":5838,"Bre":5839,"Bra":5840,"BAN":5841,"CRO":5842,"Content":5843,"Ever":5844,"Eng":5845,"Else":5846,"EPH":5847,"Full":5848,"False":5849,"Follow":5850,"GO":5851,"Ga":5852,"Gard":5853,"Gentleman":5854,"Hic":5855,"Henry":5856,"Hortensio":5857,"Lu":5858,"Live":5859,"Mis":5860,"MOR":5861,"Much":5862,"Name":5863,"Old":5864,"Patience":5865,"Persu":5866,"Saw":5867,"Six":5868,"SIR":5869,"TON":5870,"Toward":5871,"TMOR":5872,"Virt":5873,"Wr":5874,"WES":5875,"Woe":5876,"Women":5877,"WATER":5878,"Yield":5879,"ZWATER":5880,"ald":5881,"aven":5882,"back":5883,"cor":5884,"cus":5885,"call":5886,"cap":5887,"cont":5888,"cons":5889,"ded":5890,"dal":5891,"fri":5892,"gged":5893,"horse":5894,"iban":5895,"light":5896,"may":5897,"nant":5898,"pray":5899,"ront":5900,"sen":5901,"vided":5902,"wd":5903,"wing":5904,"water":5905,"zed":5906,"Ġice":5907,"Ġought":5908,"ĠThy":5909,"Ġeter":5910,"ĠQueen":5911,"Ġtard":5912,"Ġtack":5913,"Ġtree":5914,"Ġtied":5915,"Ġtired":5916,"Ġtakest":5917,"Ġah":5918,"Ġaud":5919,"Ġaged":5920,"oured":5921,"Ġsed":5922,"Ġsess":5923,"Ġsau":5924,"Ġsings":5925,"Ġsought":5926,"Ġsides":5927,"Ġsurp":5928,"Ġsilly":5929,"Ġmat":5930,"Ġmour":5931,"Ġmould":5932,"iners":5933,"Ġwet":5934,"Ġwave":5935,"Ġwaked":5936,"reet":5937,"reant":5938,"habit":5939,"Ġbay":5940,"Ġbill":5941,"Ġbent":5942,"Ġbru":5943,"Ġbol":5944,"Ġbalm":5945,"ishes":5946,"isement":5947,"orth":5948,"oriz":5949,"Ġfin":5950,"Ġfant":5951,"Ġfray":5952,"Ġfever":5953,"Ġfelt":5954,"Ġfardel":5955,"erily":5956,"itch":5957,"oned":5958,"onus":5959,"onstant":5960,"Ġcat":5961,"Ġcent":5962,"Ġcook":5963,"envol":5964,"Ġnar":5965,"Ġlour":5966,"Ġlun":5967,"arm":5968,"Ġomit":5969,"Ġtops":5970,"Ġpor":5971,"Ġpill":5972,"Ġpent":5973,"Ġphi":5974,"Ġpick":5975,"Ġpace":5976,"Ġpaint":5977,"Ġpaid":5978,"Ġpush":5979,"Ġpalm":5980,"Ġpomp":5981,"ĠIn":5982,"Ġhera":5983,"Ġheight":5984,"omes":5985,"Ġgn":5986,"Ġgap":5987,"Ġgains":5988,"Ġgoose":5989,"athe":5990,"athed":5991,"Ġbeams":5992,"sec":5993,"seem":5994,"Ġinv":5995,"Ġhail":5996,"iring":5997,"ednes":5998,"uts":5999}