{"<pad>":0,"<eos>":1,"!":2,"\"":3,"#":4,"$":5,"%":6,"&":7,"'":8,"(":9,")":10,"*":11,"+":12,",":13,"-":14,".":15,"/":16,"0":17,"1":18,"2":19,"3":20,"4":21,"5":22,"6":23,"7":24,"8":25,"9":26,":":27,";":28,"<":29,"=":30,">":31,"?":32,"@":33,"A":34,"B":35,"C":36,"D":37,"E":38,"F":39,"G":40,"H":41,"I":42,"J":43,"K":44,"L":45,"M":46,"N":47,"O":48,"P":49,"Q":50,"R":51,"S":52,"T":53,"U":54,"V":55,"W":56,"X":57,"Y":58,"Z":59,"[":60,"\\":61,"]":62,"^":63,"_":64,"`":65,"a":66,"b":67,"c":68,"d":69,"e":70,"f":71,"g":72,"h":73,"i":74,"j":75,"k":76,"l":77,"m":78,"n":79,"o":80,"p":81,"q":82,"r":83,"s":84,"t":85,"u":86,"v":87,"w":88,"x":89,"y":90,"z":91,"{":92,"|":93,"}":94,"~":95,"¡":96,"¢":97,"£":98,"¤":99,"¥":100,"¦":101,"§":102,"¨":103,"©":104,"ª":105,"«":106,"¬":107,"®":108,"¯":109,"°":110,"±":111,"²":112,"³":113,"´":114,"µ":115,"¶":116,"·":117,"¸":118,"¹":119,"º":120,"»":121,"¼":122,"½":123,"¾":124,"¿":125,"À":126,"Á":127,"Â":128,"Ã":129,"Ä":130,"Å":131,"Æ":132,"Ç":133,"È":134,"É":135,"Ê":136,"Ë":137,"Ì":138,"Í":139,"Î":140,"Ï":141,"Ð":142,"Ñ":143,"Ò":144,"Ó":145,"Ô":146,"Õ":147,"Ö":148,"×":149,"Ø":150,"Ù":151,"Ú":152,"Û":153,"Ü":154,"Ý":155,"Þ":156,"ß":157,"à":158,"á":159,"â":160,"ã":161,"ä":162,"å":163,"æ":164,"ç":165,"è":166,"é":167,"ê":168,"ë":169,"ì":170,"í":171,"î":172,"ï":173,"ð":174,"ñ":175,"ò":176,"ó":177,"ô":178,"õ":179,"ö":180,"÷":181,"ø":182,"ù":183,"ú":184,"û":185,"ü":186,"ý":187,"þ":188,"ÿ":189,"Ā":190,"ā":191,"Ă":192,"ă":193,"Ą":194,"ą":195,"Ć":196,"ć":197,"Ĉ":198,"ĉ":199,"Ċ":200,"ċ":201,"Č":202,"č":203,"Ď":204,"ď":205,"Đ":206,"đ":207,"Ē":208,"ē":209,"Ĕ":210,"ĕ":211,"Ė":212,"ė":213,"Ę":214,"ę":215,"Ě":216,"ě":217,"Ĝ":218,"ĝ":219,"Ğ":220,"ğ":221,"Ġ":222,"ġ":223,"Ģ":224,"ģ":225,"Ĥ":226,"ĥ":227,"Ħ":228,"ħ":229,"Ĩ":230,"ĩ":231,"Ī":232,"ī":233,"Ĭ":234,"ĭ":235,"Į":236,"į":237,"İ":238,"ı":239,"Ĳ":240,"ĳ":241,"Ĵ":242,"ĵ":243,"Ķ":244,"ķ":245,"ĸ":246,"Ĺ":247,"ĺ":248,"Ļ":249,"ļ":250,"Ľ":251,"ľ":252,"Ŀ":253,"ŀ":254,"Ł":255,"ł":256,"Ń":257,"Ġt":258,"he":259,"Ġa":260,"ou":261,"Ġs":262,"Ġm":263,"in":264,"Ġw":265,"re":266,"ha":267,"nd":268,"Ġthe":269,"Ġb":270,"is":271,"or":272,"Ġf":273,"er":274,"ll":275,"it":276,"on":277,"Ġd":278,"Ġc":279,"es":280,"en":281,"Ġn":282,"Ġl":283,"Ġy":284,"Ġth":285,"ar":286,"Ġh":287,"Ġo":288,"Ġto":289,"Ġyou":290,"Ġp":291,"hat":292,"ĠI":293,"Ġhe":294,"ve":295,"ot":296,"st":297,"Ġand":298,"ow":299,"ing":300,"an":301,"Ġof":302,"om":303,"Ġg":304,"at":305,"Ġbe":306,"se":307,"Ġmy":308,"Ġin":309,"ce":310,"Ġha":311,"le":312,"ay":313,"ld":314,"ir":315,"et":316,"ed":317,"ut":318,"Ġme":319,"im":320,"ith":321,"'s":322,"Ġnot":323,"ch":324,"Ġthat":325,"Ġis":326,"gh":327,"And":328,"Ġfor":329,"ke":330,"Ġu":331,"our":332,"Ġwe":333,"oo":334,"ill":335,"Ġe":336,"her":337,"Ġwith":338,"ent":339,"Ġit":340,"Ġyour":341,"ad":342,"ri":343,"Ġthou":344,"Ġst":345,"'d":346,"Ġk":347,"ome":348,"Ġhis":349,"ght":350,"EN":351,"ord":352,"id":353,"The":354,"as":355,"Ġre":356,"Ġhave":357,"IN":358,"ly":359,"ra":360,"Ġli":361,"Ġhim":362,"ur":363,"Ġthis":364,"al":365,"IO":366,"Ġso":367,"Ġas":368,"Ġde":369,"Ġon":370,"ore":371,"ro":372,"AR":373,"hi":374,"ould":375,"ood":376,"ck":377,"ain":378,"ver":379,"est":380,"Ġthy":381,"Ġsha":382,"ess":383,"ea":384,"Ġdo":385,"Ġwill":386,"am":387,"Ġno":388,"Ġbut":389,"us":390,"and":391,"US":392,"if":393,"Ġse":394,"ge":395,"Th":396,"Ġall":397,"ake":398,"Ġsu":399,"To":400,"Ġher":401,"ru":402,"ion":403,"th":404,"Ġan":405,"ter":406,"ard":407,"Ġlo":408,"han":409,"ell":410,"ear":411,"Ġsp":412,"Ġthee":413,"Ġour":414,"Ġfa":415,"Ġshall":416,"Ġby":417,"UC":418,"il":419,"Ġare":420,"ING":421,"ĠC":422,"rom":423,"Ġne":424,"ho":425,"Ġkn":426,"AN":427,"ĠR":428,"That":429,"Ġv":430,"ER":431,"OR":432,"ast":433,"ct":434,"ous":435,"Ġwhat":436,"ight":437,"Ġsh":438,"ul":439,"ET":440,"Ġ'":441,"ant":442,"ES":443,"Ġup":444,"sel":445,"qu":446,"But":447,"art":448,"Ġgood":449,"row":450,"ine":451,"ath":452,"Ġlord":453,"hich":454,"nt":455,"ust":456,"'ll":457,"one":458,"Ġpr":459,"Ġcom":460,"Ġat":461,"Ġman":462,"What":463,"ĠM":464,"Ġwhe":465,"ĠE":466,"KING":467,"Ġam":468,"end":469,"ic":470,"Ġcon":471,"ble":472,"ry":473,"ong":474,"ie":475,"ive":476,"Ġbl":477,"Ġfrom":478,"ven":479,"ĠG":480,"For":481,"Ġshe":482,"em":483,"Ġgo":484,"are":485,"Ġmore":486,"IC":487,"out":488,"Ġthem":489,"au":490,"Ġwas":491,"oth":492,"other":493,"He":494,"Ġsir":495,"ol":496,"Ġnow":497,"ĠL":498,"Ġhat":499,"ost":500,"Ġif":501,"LO":502,"ind":503,"Ġthere":504,"Ġwould":505,"Ġknow":506,"Ġcan":507,"ers":508,"IUS":509,"ep":510,"self":511,"ARD":512,"ather":513,"fe":514,"ond":515,"res":516,"ate":517,"Ġsay":518,"Ġhere":519,"Ġlove":520,"Ġsw":521,"Ġtheir":522,"Ġbr":523,"pp":524,"Ġor":525,"--":526,"all":527,"ĠS":528,"Ġthan":529,"Ġthen":530,"Ġking":531,"Ġus":532,"ĠO":533,"ĠB":534,"Ġthey":535,"Ġar":536,"od":537,"My":538,"Ġlet":539,"Ġun":540,"ig":541,"Ġwor":542,"ure":543,"ink":544,"ĠH":545,"ort":546,"hy":547,"ĠV":548,"ame":549,"fore":550,"As":551,"Ġmay":552,"el":553,"Ġqu":554,"Ġcome":555,"ook":556,"Whe":557,"ish":558,"LI":559,"Ġwell":560,"KE":561,"ves":562,"Ġj":563,"Ġone":564,"Ġhath":565,"irst":566,"You":567,"Ġmake":568,"reat":569,"ak":570,"gain":571,"Ġmust":572,"ound":573,"ng":574,"Ġgra":575,"Ġwere":576,"Ġho":577,"ci":578,"Ġsee":579,"Ġlike":580,"ue":581,"eak":582,"TIO":583,"Ġshould":584,"ity":585,"Ġpro":586,"ĠP":587,"Ġsa":588,"Ġmad":589,"um":590,"Ġpl":591,"Ġfather":592,"RO":593,"AU":594,"Ġhad":595,"Ġdid":596,"pe":597,"ime":598,"Ġupon":599,"ice":600,"ON":601,"Ġtoo":602,"ence":603,"ĠW":604,"ward":605,"ist":606,"Ġdeath":607,"own":608,"man":609,"ose":610,"Ġen":611,"un":612,"IS":613,"ful":614,"nce":615,"Ġr":616,"Ġpo":617,"Ġspeak":618,"de":619,"entle":620,"io":621,"Ġout":622,"pt":623,"Ġwhich":624,"ICH":625,"Ġfri":626,"OL":627,"DU":628,"Ġagain":629,"DUKE":630,"Ġhow":631,"EL":632,"ick":633,"ĠA":634,"Ġtru":635,"Ġheart":636,"Ġyet":637,"Ġhand":638,"CA":639,"Thou":640,"very":641,"ICHARD":642,"ENTIO":643,"With":644,"ign":645,"Ġsome":646,"ance":647,"Ġwho":648,"Which":649,"If":650,"Ġwhen":651,"ies":652,"Ġmar":653,"ire":654,"Ġmine":655,"Ġhon":656,"har":657,"orn":658,"Ġoff":659,"ince":660,"INC":661,"In":662,"ack":663,"ĠY":664,"Ġson":665,"Ġdis":666,"Ġal":667,"'t":668,"We":669,"uch":670,"wn":671,"Ġhea":672,"First":673,"oy":674,"Ġtime":675,"Ġhear":676,"AB":677,"ec":678,"Ġsuch":679,"ness":680,"LA":681,"Ġbrother":682,"Of":683,"Ġblood":684,"ither":685,"Ġab":686,"UE":687,"Why":688,"Ġthese":689,"No":690,"Ġgive":691,"Ġfo":692,"Ġday":693,"ĠII":694,"Ġear":695,"ĠRICHARD":696,"TER":697,"Ġro":698,"ise":699,"Ġex":700,"Ġlife":701,"This":702,"eet":703,"Ġtell":704,"So":705,"Ġlook":706,"Ġthink":707,"UCH":708,"oul":709,"Ġword":710,"Ġey":711,"Ġwhere":712,"ag":713,"age":714,"een":715,"ther":716,"GLO":717,"Ġtake":718,"UCES":719,"Ġfriend":720,"GLOUCES":721,"GLOUCESTER":722,"ef":723,"erv":724,"ady":725,"rown":726,"Ġdes":727,"ings":728,"ave":729,"not":730,"Ġgentle":731,"urse":732,"How":733,"RY":734,"Ġri":735,"ase":736,"QUE":737,"way":738,"INCENTIO":739,"QUEEN":740,"Ġlea":741,"tis":742,"ĠOF":743,"Ġart":744,"Ġmost":745,"Where":746,"Ġhonour":747,"LAN":748,"Ġmuch":749,"Ġsl":750,"Ġwar":751,"Ġfl":752,"urn":753,"Ġmade":754,"ment":755,"Now":756,"Ġhast":757,"Ġtw":758,"Ġfear":759,"ĠT":760,"Ġbet":761,"ENRY":762,"aught":763,"Is":764,"LE":765,"ber":766,"ff":767,"ĠGod":768,"ough":769,"ved":770,"Ġbre":771,"cc":772,"ower":773,"Ġnever":774,"ĠVINCENTIO":775,"Be":776,"ap":777,"igh":778,"ĠK":779,"Ġgreat":780,"Ġfair":781,"Who":782,"ee":783,"tle":784,"Ġmen":785,"orrow":786,"Ġcou":787,"Ġnew":788,"ĠRome":789,"aster":790,"uke":791,"iz":792,"old":793,"ORK":794,"Ġpart":795,"ation":796,"INIUS":797,"ss":798,"ree":799,"ide":800,"Or":801,"Ġcall":802,"ple":803,"Ġany":804,"Ġheaven":805,"Ġad":806,"Ġcomm":807,"It":808,"Your":809,"Ġstand":810,"Ġcannot":811,"Ġtrue":812,"DW":813,"Ġname":814,"Ġbeen":815,"ears":816,"DWARD":817,"Ġcl":818,"Ġpre":819,"Ġsweet":820,",--":821,"Ġdoth":822,"Ġpray":823,"hing":824,"PET":825,"UM":826,"Ġnoble":827,"LUC":828,"MEN":829,"TH":830,"Ġown":831,"Ġple":832,"ass":833,"ĠD":834,"ouse":835,"Ġper":836,"Ay":837,"Come":838,"ull":839,"There":840,"Ġwr":841,"Ġdone":842,"ife":843,"aw":844,"Ġtr":845,"Ġway":846,"Ġother":847,"Ġhead":848,"Ġmean":849,"li":850,"red":851,"When":852,"dward":853,"Ġnor":854,"EO":855,"MEO":856,"Ġsc":857,"Ġsoul":858,"Ġpres":859,"ROMEO":860,"ace":861,"ving":862,"Ġnight":863,"Ġbear":864,"ENIUS":865,"aint":866,"ĠCl":867,"Ġworld":868,"MENENIUS":869,"ger":870,"Ġbefore":871,"ause":872,"Ġboth":873,"Ġqueen":874,"per":875,"Then":876,"aughter":877,"RUCH":878,"ock":879,"Ġchi":880,"Here":881,"PETRUCH":882,"PETRUCHIO":883,"OM":884,"able":885,"Ġvery":886,"Ġdead":887,"TES":888,"By":889,"Ġra":890,"ite":891,"Than":892,"the":893,"Ġke":894,"ab":895,"les":896,"ĠF":897,"Ġdown":898,"to":899,"Ġapp":900,"Ġmyself":901,"Ġcont":902,"GR":903,"HA":904,"Ġwh":905,"Ġrem":906,"ĠLord":907,"Ġarm":908,"Ġthus":909,"IOLAN":910,"ilt":911,"ORIOLAN":912,"ORIOLANUS":913,"CORIOLANUS":914,"Sec":915,"Ġleave":916,"Second":917,"Ġbeing":918,"ction":919,"ĠEdward":920,"Nor":921,"sw":922,"Ġunt":923,"ress":924,"Ġgrace":925,"less":926,"Ġbeg":927,"Ġeyes":928,"BA":929,"land":930,"Ġmother":931,"ran":932,"Ġma":933,"Ġold":934,"Ġim":935,"INA":936,"ĠEDWARD":937,"itiz":938,"itizen":939,"ps":940,"Ġlong":941,"Ġever":942,"ĠMar":943,"Ġlive":944,"Ġchild":945,"Let":946,"me":947,"Ġwife":948,"She":949,"Ġaway":950,"Ġrep":951,"ĠIII":952,"Ġwom":953,"Ġpoor":954,"Ġfriends":955,"come":956,"for":957,"wick":958,"Ġaf":959,"Ġmight":960,"nder":961,"Ġstay":962,"eace":963,"ks":964,"oud":965,"Ġdie":966,"atch":967,"led":968,"ĠJ":969,"Ġru":970,"arwick":971,"Ġcomes":972,"Ġcons":973,"Ġcrown":974,"ows":975,"Ġmany":976,"Ġpe":977,"Tis":978,"hall":979,"ison":980,"Ġle":981,"ĠYORK":982,"lo":983,"uck":984,"iss":985,"Ġhouse":986,"Ġhar":987,"Ġthought":988,"Ġrest":989,"ISAB":990,"ELLA":991,"ISABELLA":992,"ian":993,"erc":994,"Ġcour":995,"RAN":996,"Ġent":997,"Ġlie":998,"che":999,"Ġset":1000,"JU":1001,"well":1002,"ors":1003,"atter":1004,"LIET":1005,"ONTES":1006,"ĠWarwick":1007,"LEONTES":1008,"JULIET":1009,"Nay":1010,"int":1011,"ittle":1012,"Ġdaughter":1013,"Ġgone":1014,"Ġbetter":1015,"MI":1016,"rant":1017,"ought":1018,"Ġprince":1019,"DY":1020,"His":1021,"Ġtong":1022,"Ġwit":1023,"Ġnothing":1024,"CE":1025,"VOL":1026,"ENCE":1027,"LADY":1028,"BR":1029,"TA":1030,"cl":1031,"ied":1032,"Ġkeep":1033,"Go":1034,"Well":1035,"ces":1036,"ious":1037,"os":1038,"Ġsle":1039,"Ġres":1040,"hard":1041,"Ġnews":1042,"SIC":1043,"ft":1044,"ier":1045,"Ġtri":1046,"Ġmo":1047,"ret":1048,"ont":1049,"Ġthose":1050,"Ġgri":1051,"ool":1052,"une":1053,"SICINIUS":1054,"Not":1055,"Ġlittle":1056,"Ġlords":1057,"Ġagainst":1058,"ford":1059,"Ġbest":1060,"Ġhour":1061,"Ġhence":1062,"ardon":1063,"akes":1064,"lse":1065,"Ġacc":1066,"sed":1067,"Ġface":1068,"ult":1069,"Ġfoll":1070,"On":1071,"ew":1072,"ud":1073,"ark":1074,"Ġyoung":1075,"Ġend":1076,"ork":1077,"Ġthing":1078,"Ġstill":1079,"Ġkind":1080,"ield":1081,"ST":1082,"Ġpri":1083,"Ġpur":1084,"alk":1085,"Thy":1086,"Ġcomp":1087,"LUCIO":1088,"ale":1089,"ins":1090,"ert":1091,"Ġput":1092,"Ġpower":1093,"ĠIV":1094,"ichard":1095,"Ġtwo":1096,"Ġcha":1097,"Ġhimself":1098,"Pro":1099,"iness":1100,"Ġfirst":1101,"Ġpeace":1102,"Ġgu":1103,"Ġelse":1104,"ried":1105,"Ġdear":1106,"cious":1107,"Sir":1108,"ail":1109,"ty":1110,"ason":1111,"hile":1112,"Ġsub":1113,"Ġunto":1114,"ile":1115,"ray":1116,"Ġtill":1117,"Ġsm":1118,"uty":1119,"RI":1120,"ZAB":1121,"ect":1122,"Ġtra":1123,"Ġbid":1124,"Ġback":1125,"Ġdre":1126,"Ġhus":1127,"ETH":1128,"ĠELI":1129,"Ġtherefore":1130,"Ġearth":1131,"Ġwords":1132,"Ġcount":1133,"ZABETH":1134,"ĠELIZABETH":1135,"Have":1136,"band":1137,"ius":1138,"men":1139,"ople":1140,"yal":1141,"Ġfind":1142,"Ġcould":1143,"Ġtongue":1144,"orse":1145,"Ġlady":1146,"Ġthine":1147,"Ġneed":1148,"ĠYork":1149,"HENRY":1150,"get":1151,"tw":1152,"Ġtre":1153,"Ġfell":1154,"enry":1155,"Ġhigh":1156,"Ġforth":1157,"Ġhope":1158,"MER":1159,"St":1160,"lp":1161,"Ġhome":1162,"vere":1163,"eth":1164,"Ġseem":1165,"eech":1166,"ĠRomeo":1167,"Ġhusband":1168,"CL":1169,"Ġduke":1170,"Ġright":1171,"GE":1172,"WAR":1173,"WIC":1174,"fort":1175,"ĠWhat":1176,"rer":1177,"Ġban":1178,"uth":1179,"Ġthough":1180,"ĠVI":1181,"WARWIC":1182,"WARWICK":1183,"UT":1184,"ach":1185,"ix":1186,"Ġmind":1187,"Ġbra":1188,"ister":1189,"Ġche":1190,"Ġchar":1191,"hip":1192,"ĠHENRY":1193,"Ġpeople":1194,"Nurse":1195,"ds":1196,"ged":1197,"ĠCitizen":1198,"ren":1199,"They":1200,"ĠHenry":1201,"HAM":1202,"IAN":1203,"LET":1204,"PU":1205,"eed":1206,"Ġbri":1207,"Ġchan":1208,"Ġlaw":1209,"ĠRichard":1210,"Ġshow":1211,"Ġconf":1212,"Ġhands":1213,"PULET":1214,"EY":1215,"be":1216,"Ġmaster":1217,"Ġwhy":1218,"Ġco":1219,"Ġcause":1220,"Ġgl":1221,"Ġonce":1222,"Ġsaid":1223,"Ġimp":1224,"Good":1225,"MIO":1226,"Shall":1227,"Ġbod":1228,"Ġnone":1229,"ousin":1230,"Ġjoy":1231,"ervant":1232,"All":1233,"bt":1234,"Ġfort":1235,"Ġbring":1236,"Yet":1237,"Ġdou":1238,"ates":1239,"Ġevery":1240,"UCKING":1241,"BRUT":1242,"UCKINGHAM":1243,"BRUTUS":1244,"BRO":1245,"BUCKINGHAM":1246,"From":1247,"TRAN":1248,"iet":1249,"Ġmist":1250,"Ġpass":1251,"ird":1252,"Ġlight":1253,"INGBRO":1254,"ESS":1255,"ĠBOL":1256,"TRANIO":1257,"INGBROKE":1258,"ĠBOLINGBROKE":1259,"Do":1260,"Will":1261,"lt":1262,"vost":1263,"Ġwo":1264,"Ġnat":1265,"Ġthr":1266,"Ġroyal":1267,"swer":1268,"PER":1269,"TIS":1270,"cle":1271,"Ġtears":1272,"its":1273,"Ġcame":1274,"ary":1275,"ĠMAR":1276,"Ġwhose":1277,"Ġplease":1278,"lf":1279,"vy":1280,"ory":1281,"Ġpardon":1282,"roke":1283,"ĠAn":1284,"Cl":1285,"GAR":1286,"NE":1287,"pose":1288,"Ġbes":1289,"Ġboy":1290,"Ġfull":1291,"arry":1292,"Ġheard":1293,"Ġhapp":1294,"Ġdev":1295,"Ġjust":1296,"Ġwrong":1297,"Ġpresent":1298,"ĠMARGAR":1299,"ĠMARGARET":1300,"ATH":1301,"eel":1302,"Ġsince":1303,"Ġmis":1304,"ens":1305,"Ġland":1306,"Ġlast":1307,"Ġere":1308,"Ġstate":1309,"Ġplace":1310,"MIL":1311,"bl":1312,"sand":1313,"Ġmeet":1314,"Ġunder":1315,"Ġkill":1316,"Ġafter":1317,"HOR":1318,"cent":1319,"Ġsorrow":1320,"ition":1321,"Ġcare":1322,"Ġthousand":1323,"esty":1324,"ANGE":1325,"ORD":1326,"Ġhold":1327,"GRE":1328,"ANGELO":1329,"CU":1330,"Our":1331,"Ġhelp":1332,"ARINA":1333,"arence":1334,"Ġwhom":1335,"Ġfollow":1336,"KATH":1337,"day":1338,"Ġfar":1339,"Ġless":1340,"Ġhither":1341,"ceive":1342,"irt":1343,"Ġweep":1344,"Ġshame":1345,"selves":1346,"cius":1347,"Ġenem":1348,"Ġabout":1349,"Ġeye":1350,"KATHARINA":1351,"iol":1352,"Ġfal":1353,"Ġfool":1354,"ons":1355,"Ġpat":1356,"urde":1357,"Ġsun":1358,"Ġanswer":1359,"air":1360,"Ġch":1361,"asure":1362,"Ġfall":1363,"Ġmaid":1364,"LUS":1365,"Un":1366,"Up":1367,"ount":1368,"Ġbus":1369,"Ġcousin":1370,"thy":1371,"ESCA":1372,"Ġhate":1373,"Ġgracious":1374,"Ġgentleman":1375,"ĠKing":1376,"Ġgrief":1377,"ESCALUS":1378,"An":1379,"ject":1380,"ove":1381,"Ġmakes":1382,"Ġinto":1383,"imes":1384,"Ġstri":1385,"Hath":1386,"iv":1387,"ild":1388,"Ġstre":1389,"ĠEng":1390,"Ġwoman":1391,"DUCH":1392,"Ġturn":1393,"Ġhum":1394,"Ġbel":1395,"alt":1396,"Ġdost":1397,"Ġcomfort":1398,"ices":1399,"Ġcoun":1400,"ĠDuke":1401,"Ġcourt":1402,"Ġsleep":1403,"urderer":1404,"DUCHESS":1405,"Lord":1406,"pher":1407,"Ġtalk":1408,"itor":1409,"Ġover":1410,"Ġbody":1411,"morrow":1412,"Ġwilt":1413,"Ġbu":1414,"Ġgr":1415,"ute":1416,"gelo":1417,"deed":1418,"ĠMarcius":1419,"IA":1420,"ience":1421,"Ġi":1422,"ised":1423,"Ġbed":1424,"Ġfault":1425,"Ġatt":1426,"ieve":1427,"Ġprove":1428,"Ġplay":1429,"CAMIL":1430,"ĠClarence":1431,"CAMILLO":1432,"God":1433,"ere":1434,"ily":1435,"Ġsound":1436,"Ġdra":1437,"ans":1438,"omet":1439,"Ġinst":1440,"Ġwel":1441,"ade":1442,"Ġret":1443,"Ġdeed":1444,"Ġthank":1445,"TEN":1446,"Ġser":1447,"Ġbo":1448,"Ġfight":1449,"Ġindeed":1450,"illain":1451,"hold":1452,"Ġvo":1453,"Ġsword":1454,"ĠAngelo":1455,"HORTEN":1456,"Ġfalse":1457,"HORTENS":1458,"FRI":1459,"Sh":1460,"Ġuse":1461,"Ġeven":1462,"Ġsovere":1463,"Ġanother":1464,"Ġgrave":1465,"Ġadv":1466,"Provost":1467,"Ġfellow":1468,"Upon":1469,"HORTENSIO":1470,"FRIAR":1471,",'":1472,"PTIS":1473,"eal":1474,"Ġcur":1475,"Ġhas":1476,"Ġem":1477,"ury":1478,"pect":1479,"BAPTIS":1480,"Ġbanish":1481,"Ġfortune":1482,"BAPTISTA":1483,"CUS":1484,"COM":1485,"TOL":1486,"YCUS":1487,"pl":1488,"pen":1489,"ouch":1490,"Ġmerc":1491,"Ġmatter":1492,"Ġwant":1493,"Ġreven":1494,"Ġass":1495,"Ġsend":1496,"Ġprison":1497,"fect":1498,"AUTOL":1499,"Ġrather":1500,"Ġcountry":1501,"Ġdoubt":1502,"COMINIUS":1503,"AUTOLYCUS":1504,".'":1505,"Are":1506,"Even":1507,"More":1508,"Ġwish":1509,"Ġyears":1510,"Ġreason":1511,"Ġlies":1512,"Ġonly":1513,"ARENCE":1514,"Third":1515,"Ġvirt":1516,"Ġtruth":1517,"Would":1518,"ior":1519,"ms":1520,"of":1521,"rance":1522,"ĠBut":1523,"Ġdan":1524,"Ġpers":1525,"any":1526,"Ġbreath":1527,"Ġarms":1528,"Ġdream":1529,"CLARENCE":1530,"pherd":1531,"BEN":1532,"MAR":1533,"NOR":1534,"dd":1535,"der":1536,"Ġsent":1537,"ener":1538,"Ġgi":1539,"Ġstra":1540,"Ġshalt":1541,"Ġdisc":1542,"VOLIO":1543,"Clown":1544,"Ġbusiness":1545,"BENVOLIO":1546,"Al":1547,"At":1548,"PRO":1549,"SPER":1550,"by":1551,"hed":1552,"Ġsen":1553,"Ġprom":1554,"Ġholy":1555,"Ġenough":1556,"erving":1557,"Ġcommand":1558,"UMIO":1559,"GRUMIO":1560,"PROSPER":1561,"PROSPERO":1562,"ia":1563,"ken":1564,"Ġsea":1565,"Ġwind":1566,"itt":1567,"Ġcra":1568,"Ġlay":1569,"ars":1570,"Ġpity":1571,"ator":1572,"Ġbea":1573,"Ġhang":1574,"Ġstran":1575,"Ġsold":1576,"Ġspir":1577,"Ġfare":1578,"Ġproud":1579,"ĠMurderer":1580,"Ġswear":1581,"Ġcontent":1582,"MERCU":1583,"MERCUTIO":1584,"ike":1585,"Ġdare":1586,"eter":1587,"Ġlives":1588,"Ġdep":1589,"Ġsec":1590,"Ġvillain":1591,"gainst":1592,"ĠKate":1593,"LUCENTIO":1594,"Ġremem":1595,"Ġnature":1596,"Ġwelcome":1597,"POM":1598,"Tw":1599,"com":1600,"unt":1601,"Ġtend":1602,"ham":1603,"Ġfree":1604,"Ġgre":1605,"Ġget":1606,"Ġint":1607,"Ġwithin":1608,"Ġkiss":1609,"ester":1610,"ĠCome":1611,"Ġgods":1612,"Ġsaw":1613,"Ġmadam":1614,"LAND":1615,"Ġhappy":1616,"Ġsovereign":1617,"POMP":1618,"LINA":1619,"PAU":1620,"apt":1621,"Ġserv":1622,"Ġsister":1623,"Ġsomet":1624,"hal":1625,"Ġfoul":1626,"Ġcity":1627,"vers":1628,"Were":1629,"Ġbeseech":1630,"PAULINA":1631,"YORK":1632,"ient":1633,"use":1634,"ery":1635,"Ġden":1636,"Ġyield":1637,"Ġthree":1638,"Ġoath":1639,"Ġyours":1640,"onder":1641,"ague":1642,"Ġbreak":1643,"Ġmeans":1644,"Ġsubject":1645,"gether":1646,"GREMIO":1647,"POMPEY":1648,"NIA":1649,"OLI":1650,"POLI":1651,"XEN":1652,"balt":1653,"ybalt":1654,"ĠNor":1655,"Ġaw":1656,"Ġmer":1657,"Ġwhile":1658,"Ġborn":1659,"Ġthings":1660,"Ġhorse":1661,"anc":1662,"usic":1663,"ANT":1664,"Ġbloody":1665,"Ġlooks":1666,"eft":1667,"UMNIA":1668,"like":1669,"ches":1670,"VOLUMNIA":1671,"POLIXEN":1672,"POLIXENES":1673,"GON":1674,"Her":1675,"rong":1676,"up":1677,"ues":1678,"Ġtem":1679,"Ġwin":1680,"Ġwound":1681,"Ġfire":1682,"enger":1683,"Ġyourself":1684,"Ġsupp":1685,"Ġspo":1686,"Ġfaith":1687,"INGS":1688,"ĠServing":1689,"Ġmaj":1690,"STINGS":1691,"Ġtraitor":1692,"centio":1693,"ĠServingman":1694,"RENCE":1695,"Say":1696,"bs":1697,"broke":1698,"rem":1699,"Ġdru":1700,"Ġlam":1701,"essenger":1702,"ĠLAU":1703,"Ġmark":1704,"Ġcommon":1705,"HASTINGS":1706,"Ġchildren":1707,"ertain":1708,"Ġmistress":1709,"ĠLAURENCE":1710,"BY":1711,"BER":1712,"Ġcond":1713,"Ġbeat":1714,"Ġrequ":1715,"Ġdef":1716,"Ġval":1717,"Ġuncle":1718,"Therefore":1719,"form":1720,"Ġmajesty":1721,"CLI":1722,"FF":1723,"Look":1724,"Was":1725,"Ġaff":1726,"Ġsin":1727,"Ġmet":1728,"Ġlate":1729,"Ġleft":1730,"Ġtold":1731,"Ġsoon":1732,"Ġseen":1733,"Ġsave":1734,"Ġdays":1735,"UMBER":1736,"THUMBER":1737,"Ġwoe":1738,"ĠEngland":1739,"NORTHUMBER":1740,"Ġtender":1741,"CLIFF":1742,"NORTHUMBERLAND":1743,"ID":1744,"Take":1745,"bed":1746,"ever":1747,"ring":1748,"ten":1749,"Ġsight":1750,"Ġmon":1751,"Ġgener":1752,"ides":1753,"idow":1754,"Ġdoes":1755,"Though":1756,"Ġreturn":1757,"Ġmercy":1758,"Ġfarewell":1759,"ac":1760,"dom":1761,"mp":1762,"ĠAN":1763,"hes":1764,"Ġsit":1765,"Ġsad":1766,"rel":1767,"Ġdeep":1768,"ters":1769,"Ġgold":1770,"unes":1771,"Ġmarry":1772,"Ġheavy":1773,"Ġfoot":1774,"Ġwarrant":1775,"ĠJul":1776,"Ġpurpose":1777,"Ġthrough":1778,"Ġdanger":1779,"ĠANNE":1780,"Ah":1781,"Did":1782,"Give":1783,"PR":1784,"aim":1785,"ict":1786,"mer":1787,"so":1788,"und":1789,"vent":1790,"Ġill":1791,"Ġcho":1792,"Ġcold":1793,"Ġnurse":1794,"Ġtogether":1795,"Ġgrow":1796,"ours":1797,"ifford":1798,"Ġsure":1799,"earn":1800,"CAPULET":1801,"ignior":1802,"INCE":1803,"Ġdeser":1804,"ments":1805,"PRINCE":1806,"az":1807,"aid":1808,"ca":1809,"oint":1810,"Ġtimes":1811,"oriol":1812,"ingbroke":1813,"ceed":1814,"Ġwithout":1815,"enty":1816,"Ġask":1817,"ross":1818,"ush":1819,"Ġlost":1820,"arewell":1821,"olingbroke":1822,"Ġpluck":1823,"Ġreport":1824,"Ġliege":1825,"Ġbelieve":1826,"Ġspirit":1827,"ling":1828,"sh":1829,"xt":1830,"Ġair":1831,"Ġage":1832,"outh":1833,"Ġwat":1834,"Ġheir":1835,"ets":1836,"ains":1837,"Ġthyself":1838,"ift":1839,"Ġloss":1840,"ĠMont":1841,"Ġsays":1842,"ĠBolingbroke":1843,"Whose":1844,"One":1845,"Ġstrange":1846,"ALO":1847,"Had":1848,"ial":1849,"no":1850,"ner":1851,"Ġbat":1852,"Ġcry":1853,"Ġlearn":1854,"ced":1855,"Ġsuff":1856,"aking":1857,"Ġears":1858,"Ġhaste":1859,"ĠClifford":1860,"Ġentreat":1861,"Ġdevil":1862,"Ġground":1863,"Should":1864,"Ġperson":1865,"ĠJuliet":1866,"Like":1867,"Wh":1868,"ges":1869,"night":1870,"Ġmur":1871,"ined":1872,"Ġfly":1873,"Ġtoward":1874,"Ġpast":1875,"oman":1876,"let":1877,"Ġfast":1878,"Ġvis":1879,"aud":1880,"ĠLu":1881,"Ġpoint":1882,"Ġfriar":1883,"Ġdisp":1884,"Ġslain":1885,"Ġbetw":1886,"ĠFrance":1887,"ixt":1888,"Ġjustice":1889,"Ġstraight":1890,"Ġremember":1891,"APULET":1892,"FL":1893,"FID":1894,"IZ":1895,"May":1896,"Some":1897,"Ġord":1898,"Ġsil":1899,"ina":1900,"Ġbold":1901,"Ġcurse":1902,"Ġnear":1903,"ution":1904,"Ġstrong":1905,"These":1906,"ĠCAPULET":1907,"ORIZ":1908,"Ġworthy":1909,"Ġquick":1910,"AUFID":1911,"entleman":1912,"Ġtrust":1913,"Ġalone":1914,"Ġdesire":1915,"Ġinstru":1916,"Ġbeauty":1917,"Ġservice":1918,"FLORIZ":1919,"AUFIDIUS":1920,"FLORIZEL":1921,"Can":1922,"SE":1923,"Tell":1924,"VER":1925,"gs":1926,"ning":1927,"ship":1928,"with":1929,"Ġtouch":1930,"Ġfound":1931,"ithe":1932,"ĠIs":1933,"adam":1934,"Ġready":1935,"ION":1936,"Ġbrought":1937,"ured":1938,"Ġposs":1939,"ĠTybalt":1940,"Ġrun":1941,"Ġhard":1942,"Ġenemy":1943,"Ġrevenge":1944,"Ġgeneral":1945,"audio":1946,"!'":1947,"Ha":1948,"ible":1949,"vo":1950,"ĠHere":1951,"Ġwoo":1952,"Ġduty":1953,"enator":1954,"Ġgrant":1955,"Ġinf":1956,"cept":1957,"Ġitself":1958,"amill":1959,"Ġlose":1960,"aunt":1961,"Ġknows":1962,"Ġcanst":1963,"ĠSenator":1964,"inks":1965,"umber":1966,"Ġmarried":1967,"Ġthoughts":1968,"Ġcharge":1969,"Against":1970,"Bec":1971,"CIUS":1972,"RICHARD":1973,"Sp":1974,"cester":1975,"eep":1976,"gu":1977,"lou":1978,"sue":1979,"ua":1980,"ĠYou":1981,"Ġmorn":1982,"Ġwear":1983,"riage":1984,"Ġread":1985,"Ġdeli":1986,"Ġspeed":1987,"Ġquar":1988,"Ġprof":1989,"Ġtwenty":1990,"Ġstands":1991,"BAST":1992,"Shepherd":1993,"ched":1994,"Ġhours":1995,"Ġconfess":1996,"Ġstreng":1997,"SEBAST":1998,"ithee":1999,"SEBASTIAN":2000,"OW":2001,"cess":2002,"ĠN":2003,"Ġmock":2004,"Ġfur":2005,"Ġfore":2006,"Ġfield":2007,"ones":2008,"Ġdiv":2009,"Ġcar":2010,"Ġyouth":2011,"Ġpost":2012,"Ġhell":2013,"ingham":2014,"Ġhalf":2015,"oop":2016,"Thus":2017,"ĠRi":2018,"olk":2019,"fection":2020,"ĠHast":2021,"Ġjud":2022,"ump":2023,"Ġexec":2024,"Ġfearful":2025,"Ġcounsel":2026,"amillo":2027,"BION":2028,"Com":2029,"DEL":2030,"Till":2031,"most":2032,"pare":2033,"Ġter":2034,"Ġmin":2035,"Ġwret":2036,"Ġbos":2037,"Ġpar":2038,"Ġbehold":2039,"Ġinc":2040,"Ġeach":2041,"ads":2042,"Ġrec":2043,"Ġdel":2044,"ĠCoriol":2045,"ols":2046,"Ġwork":2047,"ortal":2048,"Ġhearts":2049,"Ġmarriage":2050,"Ġdesp":2051,"ĠClaudio":2052,"itizens":2053,"uckingham":2054,"Ġresol":2055,"MARCIUS":2056,"ĠMontague":2057,"loucester":2058,"BIONDEL":2059,"Ġbosom":2060,"BIONDELLO":2061,"Away":2062,"MON":2063,"Madam":2064,"bly":2065,"folk":2066,"iers":2067,"now":2068,"ĠThe":2069,"Ġtit":2070,"Ġten":2071,"Ġtale":2072,"Ġbound":2073,"Ġdam":2074,"Ġcut":2075,"ench":2076,"Ġye":2077,"Ġopen":2078,"rah":2079,"alm":2080,"ĠCap":2081,"Ġshort":2082,"Ġknown":2083,"ĠBuckingham":2084,"Ġseek":2085,"Ġharm":2086,"Ġcompany":2087,"Ġguilt":2088,"Ġhighness":2089,"Ġstrike":2090,"Ġattend":2091,"Ġserve":2092,"Ġmurder":2093,"ĠHastings":2094,"Farewell":2095,"HER":2096,"OP":2097,"chan":2098,"hood":2099,"Ġve":2100,"ĠHe":2101,"ĠAU":2102,"Ġag":2103,"Ġsat":2104,"Ġside":2105,"Ġwhi":2106,"Ġwatch":2107,"rest":2108,"ished":2109,"Ġfeel":2110,"Ġdish":2111,"Ġdist":2112,"ents":2113,"ander":2114,"Ġsuit":2115,"Ġloving":2116,"ONIO":2117,"Ġhonest":2118,"Ġheavens":2119,"Ġtrib":2120,"MERLE":2121,"Ġdraw":2122,"Ġvoices":2123,"Ġsomething":2124,"ANTONIO":2125,"Ġstrength":2126,"ĠAUMERLE":2127,"Marry":2128,"Pray":2129,"See":2130,"ZALO":2131,"fid":2132,"ging":2133,"Ġact":2134,"Ġsake":2135,"Ġwast":2136,"Ġwonder":2137,"Ġwidow":2138,"Ġbit":2139,"Ġcor":2140,"Ġsto":2141,"Ġstir":2142,"ĠGentleman":2143,"ĠGloucester":2144,"ĠLanc":2145,"Ġdidst":2146,"Ġgentlemen":2147,"Ġcloud":2148,"Ġwomen":2149,"ethinks":2150,"Ġenemies":2151,"GONZALO":2152,"ĠLancaster":2153,"Unt":2154,"ives":2155,"su":2156,"Ġsing":2157,"Ġmusic":2158,"rew":2159,"Ġbreat":2160,"Ġdr":2161,"Ġpra":2162,"Ġpie":2163,"Ġpale":2164,"Ġgates":2165,"oose":2166,"race":2167,"ils":2168,"ĠCamillo":2169,"Ġnext":2170,"Ġknew":2171,"Ġcoming":2172,"Ġthanks":2173,"Ġclose":2174,"Ġpleasure":2175,"Ġsouls":2176,"ianca":2177,"Ġcourse":2178,"Ġenter":2179,"Ġwithal":2180,"Ġbrave":2181,"Ġchee":2182,"ceived":2183,"Ġtitle":2184,"DIO":2185,"fter":2186,"ne":2187,"vour":2188,"you":2189,"Ġty":2190,"Ġwa":2191,"Ġbur":2192,"Ġfit":2193,"oward":2194,"Ġgar":2195,"Ġbecome":2196,"etch":2197,"etru":2198,"Ġforg":2199,"Ġweak":2200,"Ġeither":2201,"Ġlips":2202,"rust":2203,"els":2204,"Ġjest":2205,"Ġplain":2206,"AUDIO":2207,"Ġabs":2208,"Ġpret":2209,"claim":2210,"Ġgrie":2211,"CLAUDIO":2212,"Ġchange":2213,"MIONE":2214,"ĠNorfolk":2215,"CLIFFORD":2216,"Ġsuffer":2217,"Ġdeliver":2218,"HERMIONE":2219,"DA":2220,"EDWARD":2221,"LORD":2222,"Most":2223,"cher":2224,"kes":2225,"ses":2226,"ufid":2227,"ĠTh":2228,"Ġsk":2229,"Ġsame":2230,"Ġsick":2231,"Ġsign":2232,"Ġwis":2233,"Ġwall":2234,"ready":2235,"isf":2236,"Ġcast":2237,"irth":2238,"chio":2239,"Ġforb":2240,"Ġforget":2241,"oof":2242,"ries":2243,"Ġreg":2244,"urp":2245,"east":2246,"Ġven":2247,"Ġthemselves":2248,"ĠBianca":2249,"Ġworse":2250,"ĠPom":2251,"Ġtook":2252,"Ġpoison":2253,"Ġalong":2254,"Ġrich":2255,"Ġbreast":2256,"ranio":2257,"Ġconsul":2258,"RANDA":2259,"MIRANDA":2260,"twas":2261,"twere":2262,"Ġcheer":2263,"Ġpatience":2264,"Ġmerry":2265,"Ġorder":2266,"etruchio":2267,"ufidius":2268,"HN":2269,"Messenger":2270,"OHN":2271,"SA":2272,"SON":2273,"Servant":2274,"lst":2275,"oin":2276,"ting":2277,"Ġmouth":2278,"Ġwed":2279,"Ġbad":2280,"Ġbook":2281,"Ġfour":2282,"Ġdu":2283,"ĠIf":2284,"Ġgave":2285,"chm":2286,"Ġissue":2287,"ash":2288,"Ġliber":2289,"vern":2290,"Ġself":2291,"ions":2292,"rows":2293,"ally":2294,"Ġoffice":2295,"Ġalready":2296,"Being":2297,"Ġmove":2298,"Ġvirtue":2299,"Ġgiven":2300,"Ġbattle":2301,"ĠHereford":2302,"Ġmorning":2303,"Ġfurther":2304,"Make":2305,"Since":2306,"mber":2307,"nk":2308,"pes":2309,"rist":2310,"she":2311,"uous":2312,"used":2313,"Ġta":2314,"Ġac":2315,"oun":2316,"Ġwise":2317,"Ġburn":2318,"orge":2319,"Ġfrown":2320,"Ġfeast":2321,"Ġdire":2322,"esh":2323,"Ġlad":2324,"Ġpay":2325,"anus":2326,"Ġgro":2327,"ats":2328,"Ġred":2329,"Ġsoft":2330,"each":2331,"Ġsucc":2332,"icer":2333,"Ġblack":2334,"Ġgoes":2335,"Ġsworn":2336,"ĠSignior":2337,"elcome":2338,"Ġprop":2339,"Ġsons":2340,"Ġfoe":2341,"Ġext":2342,"ĠTower":2343,"Before":2344,"Ġtrou":2345,"Ġbegg":2346,"Ġbegin":2347,"Ġconsent":2348,"dden":2349,"Ġsoldiers":2350,"Ġrequest":2351,"ĠLucentio":2352,"Ġbetween":2353,"Ġquarrel":2354,"Ġsatisf":2355,"chmond":2356,"AS":2357,"Call":2358,"IR":2359,"Must":2360,"NT":2361,"Re":2362,"Sw":2363,"Such":2364,"gare":2365,"ires":2366,"ures":2367,"ung":2368,"uff":2369,"ĠFor":2370,"hem":2371,"Ġservant":2372,"Ġbar":2373,"Ġdro":2374,"Ġdark":2375,"Ġcr":2376,"Ġcase":2377,"Ġthri":2378,"aris":2379,"ots":2380,"stand":2381,"owers":2382,"irm":2383,"Ġloves":2384,"ĠCh":2385,"ends":2386,"Ġbless":2387,"empt":2388,"Ġthence":2389,"Ġworth":2390,"ĠAufidius":2391,"CATES":2392,"Ġexp":2393,"awd":2394,"Ġpresence":2395,"Ġpriv":2396,"Unless":2397,"Alas":2398,"Ġwounds":2399,"Ġdangerous":2400,"Because":2401,"garet":2402,"CATESBY":2403,"LY":2404,"oll":2405,"that":2406,"Ġsigh":2407,"Ġble":2408,"ona":2409,"onour":2410,"Ġhot":2411,"Ġgot":2412,"Ġinter":2413,"Ġund":2414,"Ġev":2415,"Ġsum":2416,"Ġneither":2417,"Ġvict":2418,"emn":2419,"ĠLond":2420,"ĠSir":2421,"ĠVols":2422,"cient":2423,"Ġwars":2424,"Ġflatter":2425,"Ġmighty":2426,"Ġrespect":2427,"Ġdread":2428,"Ġbride":2429,"Ġbrief":2430,"Ġthrone":2431,"Ġvoice":2432,"Ġemb":2433,"aptist":2434,"Ġdeny":2435,"Ġspoke":2436,"Ġwater":2437,"Ġvisit":2438,"ĠLondon":2439,"Both":2440,"BIAN":2441,"JOHN":2442,"Lest":2443,"Rome":2444,"REY":2445,"Yes":2446,"eorge":2447,"ip":2448,"iant":2449,"mand":2450,"ught":2451,"Ġest":2452,"Ġmal":2453,"Ġmortal":2454,"Ġbow":2455,"Ġbab":2456,"Ġfra":2457,"ern":2458,"Ġhur":2459,"Ġtown":2460,"Ġoften":2461,"Ġhaving":2462,"right":2463,"ided":2464,"Ġsudden":2465,"rum":2466,"Ġancient":2467,"Ġspeech":2468,"Ġvow":2469,"ĠGeorge":2470,"Ġloved":2471,"Ġkings":2472,"ĠBaptist":2473,"Ġworship":2474,"LIA":2475,"ĠParis":2476,"Ġsafe":2477,"ired":2478,"ainted":2479,"BAL":2480,"ĠMargaret":2481,"Ġprincely":2482,"BRA":2483,"Ġchamber":2484,"Ġseems":2485,"bey":2486,"Ġbuy":2487,"Ġdeeds":2488,"Whom":2489,"VERS":2490,"ĠRichmond":2491,"Ġbitter":2492,"BIANCA":2493,"BOW":2494,"Welcome":2495,"king":2496,"ls":2497,"lish":2498,"mb":2499,"rt":2500,"sp":2501,"ura":2502,"ĠThou":2503,"ĠThis":2504,"Ġfres":2505,"Ġfetch":2506,"Ġcol":2507,"Ġcross":2508,"Ġcoward":2509,"essed":2510,"Ġlim":2511,"Ġpen":2512,"otion":2513,"ated":2514,"urch":2515,"Ġknock":2516,"antage":2517,"oney":2518,"Ġprot":2519,"ĠGAU":2520,"ĠLady":2521,"ĠSaint":2522,"ĠServant":2523,"Ġkingdom":2524,"ĠPl":2525,"Ġsac":2526,"ELBOW":2527,"Ġheads":2528,"Ġscorn":2529,"Ġrage":2530,"Ġappear":2531,"Ġlead":2532,"Ġwitness":2533,"RIVERS":2534,"Ġpatient":2535,"Ġpromise":2536,"Ġlament":2537,"Ġvaliant":2538,"ĠIsab":2539,"Speak":2540,"Ġsuccess":2541,"ĠBaptista":2542,"ĠGAUNT":2543,"Bes":2544,"Ere":2545,"GUE":2546,"Hold":2547,"TY":2548,"cy":2549,"coun":2550,"nown":2551,"sper":2552,"will":2553,"xford":2554,"ĠKING":2555,"Ġign":2556,"Ġaction":2557,"Ġbro":2558,"Ġbawd":2559,"ities":2560,"Ġcle":2561,"Ġcreat":2562,"Ġcap":2563,"Ġlack":2564,"Ġthrow":2565,"Ġow":2566,"Ġopp":2567,"Ġgall":2568,"Ġforward":2569,"Ġeat":2570,"Ġkins":2571,"Their":2572,"iff":2573,"Ġang":2574,"Ġviol":2575,"antag":2576,"Ġprin":2577,"Ġprithee":2578,"ĠMy":2579,"Ġwash":2580,"ortens":2581,"aken":2582,"ĠPetruchio":2583,"Ġoffer":2584,"Ġleast":2585,"Ġslave":2586,"Ġflesh":2587,"ĠTranio":2588,"Ġprepare":2589,"Ġprayers":2590,"then":2591,"Ġappro":2592,"TAGUE":2593,"Ġtriump":2594,"Ġmoon":2595,"Ġcompl":2596,"itted":2597,"Ġtribunes":2598,"Ġdrink":2599,"ĠChrist":2600,"Romeo":2601,"ortensio":2602,"Yea":2603,"bit":2604,"but":2605,"ees":2606,"joy":2607,"ler":2608,"oor":2609,"ohem":2610,"vest":2611,"Ġid":2612,"Ġsur":2613,"Ġmid":2614,"ines":2615,"Ġfie":2616,"Ġdest":2617,"Ġnay":2618,"Ġthither":2619,"Ġhide":2620,"athar":2621,"Ġbeast":2622,"ley":2623,"Ġreb":2624,"raw":2625,"als":2626,"alth":2627,"cks":2628,"thumber":2629,"host":2630,"asters":2631,"feit":2632,"aked":2633,"pey":2634,"Ġalmost":2635,"ully":2636,"Ġscar":2637,"Ġsmall":2638,"Ġpresently":2639,"Ġfaults":2640,"Ġdepart":2641,"Ġsecret":2642,"Ġsubjects":2643,"Ġdefend":2644,"Ġpossess":2645,"atharina":2646,"thumberland":2647,"Con":2648,"DI":2649,"GI":2650,"IEL":2651,"Pl":2652,"VIR":2653,"Whi":2654,"aul":2655,"hind":2656,"ying":2657,"Ġtear":2658,"Ġwert":2659,"rey":2660,"Ġben":2661,"Ġbase":2662,"Ġbirth":2663,"Ġfill":2664,"Ġfond":2665,"Ġlab":2666,"arl":2667,"Ġpain":2668,"inger":2669,"Ġbec":2670,"Ġform":2671,"Ġeas":2672,"Ġstru":2673,"Ġliving":2674,"rue":2675,"though":2676,"Ġgoodly":2677,"Ġwhence":2678,"ĠGREY":2679,"Ġusurp":2680,"cience":2681,"Ġtrump":2682,"Ġhearing":2683,"Ġslaughter":2684,"Ġperform":2685,"Ġwrit":2686,"perate":2687,"ledge":2688,"Stay":2689,"Stand":2690,"Ġchance":2691,"PERDI":2692,"Ġvirtuous":2693,"Ġquickly":2694,"MONTAGUE":2695,"Ġdamn":2696,"ural":2697,"ohemia":2698,"GILIA":2699,"VIRGILIA":2700,"PERDITA":2701,"Ab":2702,"Doth":2703,"Peace":2704,"SET":2705,"SLY":2706,"ding":2707,"eem":2708,"gg":2709,"iest":2710,"over":2711,"oss":2712,"ror":2713,"your":2714,"ze":2715,"Ġut":2716,"Ġtor":2717,"Ġay":2718,"Ġmatch":2719,"Ġmild":2720,"Ġwild":2721,"read":2722,"isure":2723,"Ġfier":2724,"ony":2725,"Ġca":2726,"Ġcertain":2727,"arn":2728,"Ġpu":2729,"Ġpit":2730,"ingly":2731,"sem":2732,"Ġinj":2733,"Ġins":2734,"Ġinno":2735,"eds":2736,"edant":2737,"Ġur":2738,"Ġshad":2739,"Think":2740,"Ġknee":2741,"Ġkneel":2742,"astard":2743,"ustom":2744,"Ġblows":2745,"ĠSt":2746,"ĠOxford":2747,"Ġquiet":2748,"Ġproceed":2749,"ĠPaul":2750,"Ġhadst":2751,"Ġoffence":2752,"Ġadm":2753,"Ġpleas":2754,"force":2755,"Ġaffection":2756,"Ġslew":2757,"IANA":2758,"Ġlawful":2759,"Ġglad":2760,"bling":2761,"Ġweeping":2762,"MARIANA":2763,"Ġsoldier":2764,"Ġawhile":2765,"Ġdeserved":2766,"Ġexecution":2767,"ĠCoriolanus":2768,"Ġguilty":2769,"Ġpretty":2770,"ĠPompey":2771,"Ġangry":2772,"Fa":2773,"Mar":2774,"Master":2775,"PAR":2776,"RA":2777,"VINCENTIO":2778,"awn":2779,"dge":2780,"fully":2781,"gue":2782,"ked":2783,"med":2784,"ual":2785,"vol":2786,"zen":2787,"Ġap":2788,"Ġshi":2789,"Ġsho":2790,"Ġmed":2791,"Ġmod":2792,"Ġwalk":2793,"Ġfam":2794,"Ġfled":2795,"eness":2796,"Ġyear":2797,"Ġob":2798,"Ġocc":2799,"Ġhap":2800,"Ġmeasure":2801,"Ġforsw":2802,"adua":2803,"Ġreign":2804,"Ġdoom":2805,"ames":2806,"Ġnob":2807,"rupt":2808,"Ġourselves":2809,"Ġfavour":2810,"Ġneck":2811,"Ġshows":2812,"ended":2813,"Ġblow":2814,"Ġgovern":2815,"Ġwouldst":2816,"Ġletters":2817,"Ġunc":2818,"Ġunk":2819,"Ġworst":2820,"Ġspeaks":2821,"Ġmarch":2822,"ighb":2823,"ĠKatharina":2824,"Ġgreater":2825,"Ġleisure":2826,"osition":2827,"Ġtreason":2828,"ĠEnglish":2829,"Ġbanishment":2830,"Ġsense":2831,"remio":2832,"Ġcondemn":2833,"ointed":2834,"Ġdishonour":2835,"Ġclouds":2836,"Ġbreathe":2837,"Ġforbid":2838,"Ġliberty":2839,"Ġladies":2840,"Ġtrouble":2841,"rumio":2842,"ĠIsabel":2843,"counter":2844,"antagen":2845,"PARIS":2846,":'":2847,"Int":2848,"Out":2849,"Too":2850,"While":2851,"aves":2852,"acle":2853,"dle":2854,"house":2855,"rim":2856,"rous":2857,"ĠX":2858,"Ġsort":2859,"Ġmorrow":2860,"Ġwon":2861,"Ġdry":2862,"Ġcru":2863,"Ġlan":2864,"Ġlist":2865,"Ġlaid":2866,"aring":2867,"Ġobey":2868,"Ġheld":2869,"vel":2870,"ster":2871,"ators":2872,"Ġbehind":2873,"set":2874,"Ġnote":2875,"Ġstor":2876,"ider":2877,"Ġref":2878,"Ġlived":2879,"urs":2880,"Ġaside":2881,"Ġdog":2882,"Ġnoise":2883,"Ġseat":2884,"iles":2885,"Ġvain":2886,"ĠMerc":2887,"ĠBohemia":2888,"Ġletter":2889,"Ġjoin":2890,"ounds":2891,"Ġprosper":2892,"Ġrough":2893,"Ġabove":2894,"ize":2895,"Ġremain":2896,"Ġlonger":2897,"Ġwomb":2898,"Ġneeds":2899,"Ġchoose":2900,"Ġchurch":2901,"Ġprisoner":2902,"Ġsecond":2903,"Ġtemp":2904,"Ġgolden":2905,"undred":2906,"Ġdispatch":2907,"Ġpiece":2908,"Ġfresh":2909,"Ġignor":2910,"Ġbecause":2911,"antagenet":2912,"!--":2913,"Am":2914,"De":2915,"DOR":2916,"EW":2917,"En":2918,"Hark":2919,"LAR":2920,"Pr":2921,"Su":2922,"TIUS":2923,"bb":2924,"ban":2925,"cal":2926,"ffect":2927,"him":2928,"iled":2929,"ny":2930,"ts":2931,"under":2932,"ulet":2933,"ĠNow":2934,"Ġtent":2935,"Ġsch":2936,"Ġsus":2937,"Ġsaint":2938,"Ġmut":2939,"inius":2940,"Ġbig":2941,"Ġbroke":2942,"Ġbones":2943,"Ġfat":2944,"Ġfine":2945,"Ġfive":2946,"erle":2947,"itors":2948,"Ġdrown":2949,"Ġcitizens":2950,"Ġlen":2951,"Ġlow":2952,"Ġlust":2953,"Ġlau":2954,"Ġthreat":2955,"Ġhundred":2956,"Ġobed":2957,"Ġpet":2958,"vey":2959,"ang":2960,"Ġoft":2961,"Ġbend":2962,"Ġbell":2963,"Ġind":2964,"ceit":2965,"lease":2966,"ety":2967,"Ġeffect":2968,"Ġyourselves":2969,"Ġstood":2970,"Ġstain":2971,"Ġsteel":2972,"Ġsteal":2973,"ords":2974,"asion":2975,"Ġrevere":2976,"Ġsole":2977,"ARIEL":2978,"ease":2979,"Ġknees":2980,"ular":2981,"icious":2982,"Ġconqu":2983,"ieu":2984,"Ġblessed":2985,"ĠGaunt":2986,"ĠGremio":2987,"Ġshed":2988,"ĠLet":2989,"ĠLEW":2990,"Ġswift":2991,"ĠHortensio":2992,"Ġgrand":2993,"Ġproclaim":2994,"ĠPr":2995,"ĠPadua":2996,"Ġsaf":2997,"ume":2998,"ĠWatch":2999,"istress":3000,"Ġexc":3001,"Ġdesperate":3002,"Ġslander":3003,"Ġprecious":3004,"Ġbears":3005,"Ġappare":3006,"Ġconscience":3007,"Ġentertain":3008,"ontent":3009,"Ġpride":3010,"Sirrah":3011,"uthor":3012,"Ġglory":3013,"Ġdouble":3014,"atesby":3015,"Ġwoes":3016,"posed":3017,"Ġlands":3018,"Ġsentence":3019,"ĠNorthumberland":3020,"Ġdrunk":3021,"Ġtowards":3022,"ĠCapulet":3023,"Unto":3024,"Ġforgot":3025,"Ġwisdom":3026,"Ġvenge":3027,"Sweet":3028,"Ġvictory":3029,"Ġkinsman":3030,"ĠXI":3031,"LARTIUS":3032,"ĠLEWIS":3033,"ĠWatchman":3034,";'":3035,"Bel":3036,"Could":3037,"Hear":3038,"MP":3039,"Me":3040,"Pardon":3041,"Pedant":3042,"RTIS":3043,"bray":3044,"den":3045,"gment":3046,"hn":3047,"iance":3048,"ohn":3049,"pir":3050,"ude":3051,"vail":3052,"which":3053,"head":3054,"Ġauthor":3055,"Ġsour":3056,"Ġmount":3057,"Ġmethinks":3058,"Ġmoney":3059,"Ġmasters":3060,"rent":3061,"rence":3062,"Ġfe":3063,"Ġfru":3064,"Ġfought":3065,"Ġfew":3066,"Ġdied":3067,"Ġdeter":3068,"Ġcapt":3069,"Ġpun":3070,"owbray":3071,"Ġhair":3072,"irl":3073,"Ġeld":3074,"Ġstud":3075,"estion":3076,"Ġdoing":3077,"iful":3078,"Ġseal":3079,"ility":3080,"ĠCa":3081,"cted":3082,"ETER":3083,"Ġmanner":3084,"ĠEarl":3085,"ĠGo":3086,"ĠGrumio":3087,"Ġknowledge":3088,"umerle":3089,"Ġenjoy":3090,"Ġran":3091,"ĠAnt":3092,"Within":3093,"Ġalive":3094,"Ġabro":3095,"ways":3096,"Ġhonours":3097,"Ġwarm":3098,"ations":3099,"Ġdeadly":3100,"Ġkept":3101,"Ġcontr":3102,"Ġcontin":3103,"Ġarmy":3104,"Ġlordship":3105,"Ġguest":3106,"Ġguess":3107,"CURTIS":3108,"Ġpromised":3109,"comes":3110,"eeper":3111,"Ġwretched":3112,"Ġdespair":3113,"Ġcheeks":3114,"SAMP":3115,"Ġlabour":3116,"Ġstruck":3117,"Faith":3118,"Ġdeterm":3119,"SAMPSON":3120,"'re":3121,":--":3122,"BU":3123,"Br":3124,"Citizens":3125,"Dis":3126,"EX":3127,"Either":3128,"IGON":3129,"bury":3130,"ey":3131,"good":3132,"mit":3133,"take":3134,"Ġtry":3135,"Ġteach":3136,"Ġaid":3137,"ounce":3138,"Ġsim":3139,"reed":3140,"Ġbastard":3141,"orious":3142,"llow":3143,"ited":3144,"Ġdance":3145,"Ġcorn":3146,"Ġcred":3147,"Ġcried":3148,"Ġpal":3149,"Ġhel":3150,"Ġhealth":3151,"stant":3152,"utio":3153,"ourn":3154,"Ġliest":3155,"Ġdeg":3156,"Ġdemand":3157,"Ġshake":3158,"eaven":3159,"ament":3160,"Ġsever":3161,"Ġherself":3162,"Ġspent":3163,"ĠMaster":3164,"ĠMowbray":3165,"Ġwhether":3166,"Ġamong":3167,"Ġshepherd":3168,"othing":3169,"ppy":3170,"Ġunp":3171,"Ġunw":3172,"ĠHow":3173,"Ġquoth":3174,"Ġprov":3175,"umb":3176,"Ġplant":3177,"ĠWill":3178,"ĠWhy":3179,"osed":3180,"Ġencounter":3181,"Ġrot":3182,"Ġofficer":3183,"Ġbrothers":3184,"Ġearly":3185,"Ġhonourable":3186,"Ġflowers":3187,"LEY":3188,"Ġcalls":3189,"Ġwhite":3190,"Ġremed":3191,"Ġmoved":3192,"Ġaccount":3193,"ewis":3194,"Ġkindred":3195,"Ġpriest":3196,"Ġguard":3197,"Ġcharity":3198,"Ġunderstand":3199,"Ġfoolish":3200,"Ġhumble":3201,"Ġcounter":3202,"Ġdreams":3203,"Ġgreet":3204,"ANTIGON":3205,"Ġvalour":3206,"Ġjudge":3207,"Ġwretch":3208,"Ġbeggar":3209,"Ġsummer":3210,"Ġtriumph":3211,"Ġcruel":3212,"BURY":3213,"ANTIGONUS":3214,"Bet":3215,"Fear":3216,"Lo":3217,"Mine":3218,"Made":3219,"TCLIFF":3220,"True":3221,"fall":3222,"mon":3223,"rison":3224,"ĠAnd":3225,"heart":3226,"ining":3227,"Ġwail":3228,"orthy":3229,"Ġfart":3230,"Ġfaint":3231,"ites":3232,"Ġdin":3233,"Ġdwell":3234,"Ġyea":3235,"Ġthro":3236,"Ġhung":3237,"Ġpack":3238,"Ġga":3239,"Ġgent":3240,"leep":3241,"Ġforce":3242,"Ġweary":3243,"Ġstone":3244,"Ġstars":3245,"ask":3246,"roy":3247,"Ġbutcher":3248,"ify":3249,"Ġseven":3250,"Ġanon":3251,"Ġours":3252,"ĠCom":3253,"Ġneighb":3254,"ĠRoman":3255,"Ġvie":3256,"ief":3257,"Ġblame":3258,"Ġgoing":3259,"ĠLewis":3260,"Ġthereof":3261,"Ġunf":3262,"Ġuns":3263,"Ġenvy":3264,"Ġrise":3265,"Ġthinks":3266,"Ġrid":3267,"Ġparty":3268,"Ġadd":3269,"Ġothers":3270,"ĠJohn":3271,"ians":3272,"Ġkindness":3273,"Ġchast":3274,"Ġbids":3275,"Ġbright":3276,"Ġglass":3277,"Ġmiser":3278,"Ġcrave":3279,"Twas":3280,"Ġwinter":3281,"Ġmonth":3282,"Ġminister":3283,"Ġwalls":3284,"Ġextrem":3285,"Ġsatisfied":3286,"Ġprivate":3287,"ĠVolsces":3288,"Ġidle":3289,"Ġscarce":3290,"Ġbenef":3291,"RATCLIFF":3292,"Ġlaugh":3293,"Ġvengeance":3294,"Ġabroad":3295,"Ġview":3296,"After":3297,"Bid":3298,"BIS":3299,"Fie":3300,"Gentle":3301,"HOP":3302,"Ne":3303,"Never":3304,"Signior":3305,"Under":3306,"aff":3307,"gra":3308,"ners":3309,"ope":3310,"shall":3311,"ued":3312,"vious":3313,"whe":3314,"woman":3315,"Ġver":3316,"incentio":3317,"Ġwre":3318,"Ġwench":3319,"rees":3320,"have":3321,"orous":3322,"Ġfirm":3323,"Ġcir":3324,"Ġcorse":3325,"enes":3326,"Ġlest":3327,"Ġhol":3328,"vell":3329,"ott":3330,"omas":3331,"att":3332,"ating":3333,"Ġincl":3334,"cell":3335,"utland":3336,"Ġformer":3337,"Ġease":3338,"riar":3339,"ident":3340,"Ġrel":3341,"Ġreceived":3342,"Ġdeal":3343,"amp":3344,"Ġsport":3345,"Ġfaire":3346,"ANLEY":3347,"ĠRutland":3348,"Ġvile":3349,"Ġshrew":3350,"antua":3351,"ĠMantua":3352,"Ġconcl":3353,"Ġconvey":3354,"Ġgod":3355,"allow":3356,"ĠBarn":3357,"Ġarri":3358,"Ġunb":3359,"ĠHer":3360,"ĠVincentio":3361,"Ġmayst":3362,"eless":3363,"Ġquite":3364,"Ġprovost":3365,"IST":3366,"Ġtruly":3367,"Ġdism":3368,"Off":3369,"Ġfoes":3370,"Ġroot":3371,"Ġwherefore":3372,"Ġflower":3373,"Ġimag":3374,"Ġtrial":3375,"ailor":3376,"Ġsmo":3377,"Ġtrem":3378,"Ġfellows":3379,"rench":3380,"Ġchanged":3381,"Ġcover":3382,"Ġhumour":3383,"Ġboot":3384,"Ġswords":3385,"Ġdeputy":3386,"Ġcondition":3387,"Ġjudgment":3388,"change":3389,"Ġtyrant":3390,"Ġacqu":3391,"Ġevil":3392,"BALT":3393,"TYBALT":3394,"Whilst":3395,"Ġeasy":3396,"ĠMercutio":3397,"Ġschool":3398,"Ġexcuse":3399,"Ġfruit":3400,"BISHOP":3401,"'?":3402,"AL":3403,"Bl":3404,"Des":3405,"Ex":3406,"KEN":3407,"Methinks":3408,"Put":3409,"Tut":3410,"ault":3411,"after":3412,"con":3413,"ek":3414,"ead":3415,"ered":3416,"his":3417,"oot":3418,"pin":3419,"roth":3420,"rate":3421,"shi":3422,"ta":3423,"vish":3424,"Ġtaken":3425,"Ġwither":3426,"Ġba":3427,"Ġbrow":3428,"Ġbite":3429,"Ġbrows":3430,"Ġfain":3431,"Ġfeed":3432,"erona":3433,"Ġdust":3434,"Ġdull":3435,"enance":3436,"Ġthunder":3437,"Ġpains":3438,"anley":3439,"Ġgown":3440,"Ġgrown":3441,"Ġgift":3442,"Ġghost":3443,"Ġgirl":3444,"Ġbeha":3445,"Ġmeat":3446,"rift":3447,"Ġstab":3448,"Ġstoop":3449,"idings":3450,"ract":3451,"arden":3452,"Ġspe":3453,"Ġspake":3454,"Ġspring":3455,"ilia":3456,"ĠCatesby":3457,"Ġknave":3458,"AND":3459,"Ġvice":3460,"aste":3461,"Ġshore":3462,"Ġproof":3463,"Ġblest":3464,"Ġblind":3465,"ement":3466,"Ġsirrah":3467,"Ġunl":3468,"Ġquestion":3469,"Ġjoint":3470,"cians":3471,"ĠWe":3472,"ĠAl":3473,"ĠAumerle":3474,"Ġhonesty":3475,"ursed":3476,"Ġleaves":3477,"Ġtwice":3478,"aper":3479,"ĠKeeper":3480,"Ġprevent":3481,"OMAS":3482,"there":3483,"ĠMars":3484,"Ġrepent":3485,"Ġtraitors":3486,"twixt":3487,"Ġimport":3488,"Ġwrongs":3489,"Ġburied":3490,"ealous":3491,"place":3492,"Ġreasons":3493,"Alack":3494,"Ġsenate":3495,"Ġgreen":3496,"Ġaffair":3497,"acher":3498,"Ġchoice":3499,"azed":3500,"Ġdivine":3501,"ĠCorioli":3502,"Ġwhilst":3503,"Ġstop":3504,"Ġtyran":3505,"Ġprophe":3506,"Ġembrace":3507,"Ġmalice":3508,"BRAKEN":3509,"ĠPlantagenet":3510,"Ġsacred":3511,"Ġfiery":3512,"Ġinnocent":3513,"ĠPaulina":3514,"Ġleng":3515,"ĠPrince":3516,"Ġsafety":3517,"ĠCominius":3518,"BRAKENBURY":3519,"?'":3520,"Ad":3521,"DER":3522,"DON":3523,"Edward":3524,"GOR":3525,"Hence":3526,"Ind":3527,"MIST":3528,"Once":3529,"Richard":3530,"RESS":3531,"cha":3532,"draw":3533,"eld":3534,"go":3535,"mn":3536,"my":3537,"more":3538,"nat":3539,"op":3540,"oly":3541,"oard":3542,"pet":3543,"port":3544,"poll":3545,"sic":3546,"would":3547,"Ġed":3548,"ĠTo":3549,"Ġavo":3550,"Ġsits":3551,"inous":3552,"Ġwag":3553,"Ġwings":3554,"rehe":3555,"Ġbark":3556,"orry":3557,"Ġfury":3558,"Ġfinger":3559,"erset":3560,"itol":3561,"Ġcustom":3562,"enen":3563,"anch":3564,"omerset":3565,"Ġgross":3566,"Ġgarden":3567,"Ġinform":3568,"edious":3569,"Ġused":3570,"Ġweeds":3571,"Ġele":3572,"Ġeag":3573,"Ġstones":3574,"Ġdec":3575,"Ġdoor":3576,"Ġnose":3577,"Ġallow":3578,"think":3579,"Ġanger":3580,"ardine":3581,"Ġloath":3582,"Ġloyal":3583,"ellow":3584,"Ġfares":3585,"Ġnecess":3586,"Ġknight":3587,"ctise":3588,"Ġshr":3589,"Ġoracle":3590,"ĠOVER":3591,"Myself":3592,"hysic":3593,"Ġmayor":3594,"elve":3595,"Ġhollow":3596,"Ġsail":3597,"Ġplague":3598,"unning":3599,"Ġround":3600,"Ġfright":3601,"icked":3602,"Without":3603,"Ġalways":3604,"Ġrob":3605,"Ġrock":3606,"Ġwherein":3607,"Ġdesign":3608,"Wherein":3609,"aughters":3610,"Ġadieu":3611,"Ġcommend":3612,"Ġclaim":3613,"Ġprevail":3614,"Ġprayer":3615,"PETER":3616,"Ġplead":3617,"Ġperceive":3618,"Ġtroth":3619,"Ġrude":3620,"Ġtongues":3621,"Ġsubst":3622,"Ġsmile":3623,"Ġimprison":3624,"Ġcares":3625,"GREGOR":3626,"Ġdrawn":3627,"Ġempt":3628,"Ġwanton":3629,"Ġassist":3630,"unts":3631,"Ġtempt":3632,"Ġdeserve":3633,"Ġdelight":3634,"ĠCapitol":3635,"Ġpractise":3636,"Ġcheek":3637,"Ġabsence":3638,"ĠThomas":3639,"Ġdrop":3640,"Ġcreature":3641,"Ġtrumpets":3642,"Ġutter":3643,"Ġlangu":3644,"Ġignorant":3645,"Brother":3646,"Ġrotten":3647,"Ġremedy":3648,"Ġcirc":3649,"ĠBarnardine":3650,"DERBY":3651,"DONE":3652,"Indeed":3653,"MISTRESS":3654,"enenius":3655,"ĠOVERDONE":3656,"GREGORY":3657,"Art":3658,"CH":3659,"Dost":3660,"FORD":3661,"OX":3662,"Poor":3663,"Res":3664,"RICH":3665,"SOM":3666,"Turn":3667,"VAL":3668,"act":3669,"dy":3670,"eous":3671,"mion":3672,"sing":3673,"thi":3674,"what":3675,"yard":3676,"Ġes":3677,"ĠWhere":3678,"Ġtune":3679,"Ġtidings":3680,"Ġtedious":3681,"held":3682,"Ġaim":3683,"Ġaught":3684,"Ġship":3685,"Ġsens":3686,"Ġwent":3687,"Ġwont":3688,"Ġwives":3689,"Ġwicked":3690,"haps":3691,"isa":3692,"ises":3693,"onounce":3694,"Ġdur":3695,"Ġcre":3696,"Ġcell":3697,"Ġcure":3698,"Ġcarry":3699,"Ġcries":3700,"esy":3701,"Ġnumber":3702,"Ġlar":3703,"Ġloud":3704,"Ġthrust":3705,"Ġhit":3706,"Ġhid":3707,"Ġpil":3708,"Ġpair":3709,"othe":3710,"Ġbecomes":3711,"cend":3712,"utes":3713,"iment":3714,"rious":3715,"Ġstar":3716,"Ġstat":3717,"Ġsteed":3718,"ashi":3719,"Ġreceive":3720,"Ġasleep":3721,"Ġdew":3722,"Ġdeceived":3723,"Ġdeposed":3724,"Ġshar":3725,"this":3726,"ards":3727,"hant":3728,"Ġvantage":3729,"ERIA":3730,"ERSET":3731,"ĠMusic":3732,"Ġconj":3733,"ongs":3734,"ĠGrey":3735,"Ġsheep":3736,"Ġtherein":3737,"ĠSic":3738,"ĠSomerset":3739,"ĠVerona":3740,"Ġjealous":3741,"Ġshouldst":3742,"Ġproper":3743,"Ġras":3744,"Ġoutward":3745,"Ġwhole":3746,"Ġoffend":3747,"ĠYour":3748,"Ġalas":3749,"Ġheav":3750,"Ġearn":3751,"eeth":3752,"Ġmeaning":3753,"aced":3754,"Ġchief":3755,"Ġbegins":3756,"ĠJove":3757,"Ġruin":3758,"loved":3759,"ission":3760,"Ġresign":3761,"Ġfollows":3762,"Ġtread":3763,"Ġtreacher":3764,"ethought":3765,"Ġbanished":3766,"Ġpassing":3767,"Ġwoful":3768,"Ġdevise":3769,"Ġfollowers":3770,"Ġfools":3771,"Ġmaids":3772,"Show":3773,"Ġadvise":3774,"Ġgives":3775,"itting":3776,"Ġrememb":3777,"Ġawake":3778,"Ġborne":3779,"Ġsupper":3780,"Ġlamb":3781,"Ġcondu":3782,"aze":3783,"Ġsilence":3784,"Ġpossible":3785,"Having":3786,"Ġprofess":3787,"Ġdespite":3788,"MOND":3789,"Ġgarments":3790,"Ġcastle":3791,"Ġthrive":3792,"Ġexpress":3793,"Ġundone":3794,"Ġdreadful":3795,"Ġbabe":3796,"Ġprotect":3797,"Besides":3798,"Ġbroken":3799,"Ġviolent":3800,"ĠChristian":3801,"Ġpubl":3802,"Ġoccasion":3803,"Ġnobles":3804,"Into":3805,"ursday":3806,"Ġfatal":3807,"Ġbelly":3808,"Ġauthority":3809,"Ġsimple":3810,"Ġfarther":3811,"Ġthroat":3812,"Ġbenefit":3813,"pinion":3814,"Ġaffairs":3815,"pollo":3816,"OXFORD":3817,"RICHMOND":3818,"SOMERSET":3819,"VALERIA":3820,"mione":3821,"AMIL":3822,"BUS":3823,"Great":3824,"HY":3825,"Hast":3826,"LIUS":3827,"MOP":3828,"MAMIL":3829,"Per":3830,"Tybalt":3831,"Tailor":3832,"Very":3833,"app":3834,"cing":3835,"can":3836,"eg":3837,"fl":3838,"father":3839,"gle":3840,"iond":3841,"oat":3842,"pr":3843,"ron":3844,"son":3845,"ub":3846,"Ġer":3847,"Ġir":3848,"ĠThere":3849,"Ġtort":3850,"Ġtaste":3851,"Ġsan":3852,"Ġsix":3853,"Ġsorry":3854,"Ġwine":3855,"Ġwander":3856,"Ġband":3857,"Ġbond":3858,"erved":3859,"itude":3860,"Ġdet":3861,"Ġdue":3862,"Ġcal":3863,"Ġcam":3864,"Ġcunning":3865,"ene":3866,"enn":3867,"Ġnine":3868,"Ġnames":3869,"Ġlend":3870,"arch":3871,"Ġtop":3872,"Ġpin":3873,"Ġpawn":3874,"Ġpaper":3875,"Ġphysic":3876,"Ġgain":3877,"Ġgage":3878,"Ġbelike":3879,"Ġbeheld":3880,"Ġinfect":3881,"ldom":3882,"eding":3883,"utation":3884,"Ġweight":3885,"Ġweap":3886,"ills":3887,"Ġequ":3888,"enture":3889,"Ġstore":3890,"Ġstep":3891,"Ġstock":3892,"Ġstuff":3893,"Ġrenown":3894,"rand":3895,"Ġlip":3896,"Ġdeare":3897,"room":3898,"eave":3899,"usion":3900,"iffe":3901,"Ġseas":3902,"Ġsup":3903,"run":3904,"Ġange":3905,"Ġlod":3906,"ello":3907,"Ġspend":3908,"Ġspare":3909,"hop":3910,"Ġvan":3911,"ouses":3912,"Ġshut":3913,"ustice":3914,"ĠMOW":3915,"ĠMenenius":3916,"olix":3917,"Ġsway":3918,"Ġbrook":3919,"Ġkingly":3920,"ĠBona":3921,"Ġunnat":3922,"ĠHarry":3923,"Ġquit":3924,"imely":3925,"Ġenvious":3926,"Ġrash":3927,"Ġdisd":3928,"ABHOR":3929,"Ġroom":3930,"Ġexile":3931,"Ġexcell":3932,"Ġdesert":3933,"Ġgentlewoman":3934,"Ġflight":3935,"Ġtwelve":3936,"Ġparts":3937,"Ġprey":3938,"THOMAS":3939,"Ġperil":3940,"Ġperish":3941,"Ġtrans":3942,"iteous":3943,"ĠFriar":3944,"Ġwhither":3945,"swain":3946,"Ġuntil":3947,"Ġaffect":3948,"Ġlean":3949,"Ġlegs":3950,"orses":3951,"Ġkeeps":3952,"Ġaccus":3953,"STANLEY":3954,"Ġprize":3955,"Ġpursu":3956,"Ġchair":3957,"Ġcountenance":3958,"Ġpleased":3959,"ounty":3960,"Ġhumbly":3961,"Ġcourtesy":3962,"Ġadvantage":3963,"Ġcurst":3964,"ploy":3965,"Ġspirits":3966,"Two":3967,"Ġintend":3968,"Ġdenied":3969,"ancy":3970,"Ġdisposition":3971,"Ġbetwixt":3972,"Ġsilver":3973,"Ġdelay":3974,"Ġresolve":3975,"ĠThursday":3976,"Ġwedding":3977,"Ġsighs":3978,"Ġhurt":3979,"BRAY":3980,"Ġcolour":3981,"Ġclear":3982,"Ġowe":3983,"Ġprepared":3984,"Ġdamned":3985,"Ġshadow":3986,"Ġpleasant":3987,"Ġforsworn":3988,"Ġstorm":3989,"Death":3990,"Ġthreaten":3991,"Ġconquer":3992,"Ġpunish":3993,"ĠCaius":3994,"Ġcontrary":3995,"EXETER":3996,"Ġpalace":3997,"Ġdinner":3998,"Ġneighbour":3999}